<unk>	0
<s>	0
</s>	0
an	-0
▁t	-1
in	-2
▁s	-3
▁a	-4
he	-5
▁n	-6
ou	-7
▁m	-8
on	-9
re	-10
at	-11
▁w	-12
ို	-13
ang	-14
င်	-15
er	-16
it	-17
is	-18
▁p	-19
al	-20
▁b	-21
ing	-22
▁the	-23
ar	-24
▁y	-25
▁d	-26
▁you	-27
▁sa	-28
or	-29
ານ	-30
▁h	-31
▁c	-32
្រ	-33
▁k	-34
ag	-35
en	-36
as	-37
▁l	-38
▁g	-39
ော	-40
▁I	-41
▁to	-42
▁f	-43
ay	-44
▁th	-45
es	-46
il	-47
က်	-48
ား	-49
▁ng	-50
am	-51
▁o	-52
ed	-53
om	-54
ាន	-55
ອງ	-56
န်	-57
et	-58
us	-59
ັນ	-60
ot	-61
ak	-62
el	-63
ow	-64
▁an	-65
ທີ	-66
ារ	-67
ve	-68
un	-69
▁na	-70
င်း	-71
▁ang	-72
▁in	-73
▁ເ	-74
ການ	-75
ic	-76
▁is	-77
▁it	-78
ga	-79
ad	-80
ကို	-81
▁S	-82
ທີ່	-83
ig	-84
id	-85
le	-86
ည်	-87
ໍາ	-88
▁A	-89
្ន	-90
▁of	-91
စ်	-92
▁he	-93
ລະ	-94
່າ	-95
မှ	-96
▁2	-97
▁M	-98
▁1	-99
▁C	-100
ັບ	-101
ယ်	-102
im	-103
hat	-104
້າ	-105
ap	-106
▁mga	-107
တ်	-108
ut	-109
▁at	-110
▁အ	-111
ဲ့	-112
ໃນ	-113
▁ແ	-114
ac	-115
os	-116
ការ	-117
..	-118
မျ	-119
ຂອງ	-120
▁T	-121
▁ay	-122
ol	-123
▁and	-124
ul	-125
ong	-126
▁P	-127
...	-128
▁that	-129
ေး	-130
ပြ	-131
ပ်	-132
ab	-133
▁be	-134
ို့	-135
ah	-136
iy	-137
▁me	-138
ប្រ	-139
ik	-140
တွ	-141
です	-142
ion	-143
າມ	-144
▁on	-145
្ត	-146
ັດ	-147
ပါ	-148
▁e	-149
You	-150
ုံ	-151
ro	-152
ver	-153
▁ສ	-154
した	-155
▁B	-156
ကြ	-157
▁we	-158
um	-159
ជា	-160
ir	-161
ດ້	-162
oo	-163
ll	-164
များ	-165
▁ຫ	-166
▁re	-167
າຍ	-168
နှ	-169
និ	-170
ht	-171
ent	-172
▁(	-173
ur	-174
▁H	-175
up	-176
▁D	-177
່ງ	-178
aw	-179
▁W	-180
out	-181
ます	-182
ly	-183
ປະ	-184
▁st	-185
້ນ	-186
င့်	-187
って	-188
េស	-189
ໄດ້	-190
▁do	-191
ld	-192
່ນ	-193
▁20	-194
▁-	-195
ave	-196
して	-197
ុង	-198
▁for	-199
nd	-200
ီး	-201
▁G	-202
ust	-203
່ານ	-204
ရှ	-205
ស់	-206
ິດ	-207
▁L	-208
ໍ່	-209
ind	-210
▁r	-211
ကျ	-212
ម្	-213
ັງ	-214
າດ	-215
ချ	-216
មាន	-217
ome	-218
ter	-219
ມີ	-220
និង	-221
ាក	-222
ົນ	-223
▁N	-224
ant	-225
ight	-226
ဖြ	-227
ອນ	-228
ាំ	-229
▁ກ	-230
បាន	-231
ប់	-232
ទេស	-233
ec	-234
ວ່າ	-235
ill	-236
မ်	-237
▁ແລະ	-238
ib	-239
នៅ	-240
if	-241
and	-242
▁was	-243
▁this	-244
st	-245
ell	-246
ែល	-247
ない	-248
ណ៍	-249
▁R	-250
▁your	-251
▁ຄ	-252
▁have	-253
00	-254
▁သ	-255
った	-256
▁my	-257
ສະ	-258
ch	-259
▁kn	-260
န်း	-261
າກ	-262
こと	-263
ုပ်	-264
ື່	-265
▁F	-266
▁pag	-267
ປັນ	-268
ောက်	-269
ိုင်	-270
▁not	-271
ith	-272
ທ່ານ	-273
သည်	-274
ដែល	-275
ုံး	-276
្ល	-277
▁E	-278
្វ	-279
op	-280
The	-281
့်	-282
▁up	-283
ចរ	-284
ໃຫ	-285
▁go	-286
▁ນ	-287
ວກ	-288
her	-289
▁j	-290
រប	-291
▁និង	-292
တယ်	-293
▁isang	-294
▁know	-295
ip	-296
em	-297
ould	-298
ຈະ	-299
ັກ	-300
ました	-301
▁ကို	-302
▁with	-303
ော်	-304
▁ລ	-305
្ស	-306
▁are	-307
မှု	-308
iya	-309
one	-310
ng	-311
ົາ	-312
▁ne	-313
ចរណ៍	-314
▁J	-315
▁can	-316
od	-317
្នុង	-318
တွေ	-319
ວາມ	-320
ຫຼ	-321
ក្នុង	-322
ົ້າ	-323
ມ່ນ	-324
ိုး	-325
art	-326
របស់	-327
ក្រ	-328
▁3	-329
する	-330
ີ້	-331
から	-332
ack	-333
တစ်	-334
ောင်း	-335
se	-336
နေ	-337
ung	-338
អា	-339
ုတ်	-340
ាប់	-341
ce	-342
ခြ	-343
မ်း	-344
▁ໃນ	-345
▁mo	-346
▁ພ	-347
ពី	-348
နှင့်	-349
▁O	-350
ູ້	-351
▁ທີ່	-352
▁K	-353
ဖြစ်	-354
▁what	-355
ូវ	-356
ເຮ	-357
▁tr	-358
▁don	-359
ម្រ	-360
ike	-361
ေါ	-362
ist	-363
ទេសចរណ៍	-364
ee	-365
ំណ	-366
▁sh	-367
ation	-368
hing	-369
▁လ	-370
▁201	-371
It	-372
ບໍ່	-373
▁ab	-374
our	-375
ປີ	-376
တို့	-377
▁kan	-378
ook	-379
▁ຂອງ	-380
ck	-381
່ວ	-382
▁က	-383
▁wh	-384
າງ	-385
ល់	-386
ွန်	-387
ຸດ	-388
ည်း	-389
ake	-390
▁as	-391
▁ອ	-392
ie	-393
ຫນ	-394
▁"	-395
ព័	-396
ົດ	-397
တာ	-398
ောင်	-399
ួយ	-400
all	-401
ອກ	-402
▁get	-403
្យ	-404
ink	-405
្នក	-406
ភា	-407
អ្នក	-408
မှာ	-409
ູ່	-410
▁ຕ	-411
ឹង	-412
いる	-413
▁just	-414
est	-415
▁here	-416
ive	-417
▁all	-418
▁out	-419
မြ	-420
▁like	-421
▁စ	-422
ຄວາມ	-423
ແລະ	-424
ain	-425
ាស	-426
ត្រ	-427
້ອ	-428
ເປັນ	-429
▁so	-430
တဲ့	-431
ាយ	-432
indi	-433
▁fr	-434
ess	-435
វិ	-436
ug	-437
▁al	-438
ers	-439
ើង	-440
▁ຫນ	-441
ry	-442
▁want	-443
ara	-444
ាក់	-445
ໃຫ້	-446
And	-447
ood	-448
ilang	-449
ោះ	-450
ရှိ	-451
He	-452
មួយ	-453
ate	-454
ទី	-455
ard	-456
▁about	-457
▁mag	-458
▁ak	-459
▁•	-460
້ອງ	-461
ັ້ນ	-462
ub	-463
េះ	-464
င့်	-465
▁nag	-466
▁ການ	-467
ort	-468
▁ຈ	-469
very	-470
▁5	-471
▁him	-472
res	-473
います	-474
▁ໄດ້	-475
▁ມ	-476
▁/	-477
ine	-478
្ឋ	-479
よう	-480
ally	-481
この	-482
▁U	-483
▁ပ	-484
ម្ម	-485
ាត	-486
နိုင်	-487
ិត	-488
end	-489
ရာ	-490
ោយ	-491
လို	-492
▁ທ	-493
▁did	-494
We	-495
▁us	-496
are	-497
သော	-498
▁wor	-499
▁there	-500
່າງ	-501
ຢູ່	-502
ភាព	-503
ິນ	-504
လုပ်	-505
ລາ	-506
▁ito	-507
ast	-508
ဒီ	-509
▁ສໍາ	-510
av	-511
▁4	-512
▁or	-513
တယ်။	-514
to	-515
ື່ອ	-516
あり	-517
នៃ	-518
▁pro	-519
ရေး	-520
ຜູ້	-521
ព័ត	-522
တွက်	-523
ia	-524
▁un	-525
na	-526
៌មាន	-527
のです	-528
▁they	-529
ព័ត៌មាន	-530
ct	-531
ူး	-532
ແມ່ນ	-533
ົງ	-534
▁right	-535
▁got	-536
သူ	-537
នេះ	-538
それ	-539
▁think	-540
▁ch	-541
▁her	-542
▁မ	-543
ິງ	-544
▁iy	-545
▁no	-546
ဆို	-547
uh	-548
ິ່ງ	-549
ាំង	-550
hen	-551
ある	-552
▁one	-553
What	-554
ន្	-555
ດີ	-556
oug	-557
ure	-558
▁but	-559
ခု	-560
ear	-561
▁ຊ	-562
yon	-563
nt	-564
ພວກ	-565
ပေါ	-566
ore	-567
ໄປ	-568
iv	-569
Ang	-570
ເຂ	-571
ដោយ	-572
qu	-573
▁man	-574
▁ar	-575
▁v	-576
ាល	-577
ide	-578
これ	-579
ພາ	-580
ເລ	-581
▁para	-582
້ງ	-583
ませ	-584
ala	-585
ိုင်း	-586
▁any	-587
▁You	-588
ません	-589
ອບ	-590
here	-591
្វើ	-592
នឹង	-593
៊ី	-594
▁pl	-595
ect	-596
ធ្វើ	-597
▁de	-598
▁V	-599
ိတ်	-600
▁com	-601
້ອຍ	-602
សម្រ	-603
ាង	-604
ើរ	-605
ົວ	-606
ະນ	-607
ន្ត	-608
ពិ	-609
ခဲ့	-610
では	-611
ဒါ	-612
ង្	-613
▁hindi	-614
ပြီး	-615
အတွက်	-616
ກັບ	-617
ice	-618
og	-619
ok	-620
▁ex	-621
20	-622
▁ព័ត៌មាន	-623
ដ្ឋ	-624
ime	-625
ຈົ້າ	-626
ໃຊ	-627
្ច	-628
စား	-629
កម្ម	-630
ូល	-631
▁con	-632
▁ໂ	-633
ຈາກ	-634
ាន់	-635
▁may	-636
たち	-637
ရဲ့	-638
▁ကျ	-639
ans	-640
ຕ່	-641
ວັນ	-642
ិក	-643
▁တ	-644
ឆ្ន	-645
▁am	-646
own	-647
uk	-648
ໃຊ້	-649
ity	-650
▁ຂ	-651
ຖື	-652
ត្រូវ	-653
ost	-654
ew	-655
いて	-656
ពេ	-657
▁le	-658
▁some	-659
▁if	-660
ົບ	-661
່ຽ	-662
ិន	-663
▁see	-664
pl	-665
ud	-666
ນີ້	-667
ies	-668
ဟာ	-669
▁will	-670
には	-671
▁she	-672
သွ	-673
▁from	-674
▁siya	-675
その	-676
いう	-677
ound	-678
Th	-679
ຶ່ງ	-680
▁ko	-681
でき	-682
ခြင်း	-683
ាម	-684
ດຍ	-685
ဦး	-686
use	-687
▁now	-688
តិ	-689
លើ	-690
ເພ	-691
ະລ	-692
ya	-693
ຮັບ	-694
ace	-695
But	-696
ັ້ງ	-697
uck	-698
សម្រាប់	-699
ុន	-700
ick	-701
ុម	-702
ော့	-703
ມື	-704
ra	-705
ເວ	-706
しょ	-707
▁ka	-708
ob	-709
ມາ	-710
▁ບ	-711
▁ເປັນ	-712
နဲ့	-713
▁19	-714
ချက်	-715
្ញ	-716
▁back	-717
ថ្	-718
ឆ្នាំ	-719
んだ	-720
▁pr	-721
ំន	-722
▁ထ	-723
▁ປະ	-724
ມັນ	-725
でも	-726
ដំណ	-727
▁sp	-728
▁...	-729
ိုက်	-730
der	-731
▁say	-732
▁ရ	-733
th	-734
▁Y	-735
▁ແມ່ນ	-736
▁going	-737
▁6	-738
▁would	-739
▁them	-740
▁mat	-741
oy	-742
្ប	-743
ula	-744
にな	-745
alk	-746
され	-747
▁ta	-748
ក្រុម	-749
So	-750
គ្រ	-751
ទៅ	-752
ase	-753
ສາມ	-754
ຖືກ	-755
▁10	-756
ເທ	-757
ank	-758
ep	-759
ាត់	-760
ဉ်	-761
▁Ch	-762
▁who	-763
しょう	-764
▁nam	-765
▁were	-766
way	-767
▁ສະ	-768
▁St	-769
▁time	-770
▁ຫຼ	-771
ita	-772
ian	-773
▁ມີ	-774
▁mak	-775
ခံ	-776
ង់	-777
awa	-778
ប្រទេស	-779
ເຮົາ	-780
ສຸດ	-781
▁need	-782
▁iyong	-783
▁look	-784
ite	-785
という	-786
ត្ត	-787
ဖို့	-788
No	-789
ပေး	-790
ួន	-791
▁upang	-792
တူ	-793
▁gu	-794
▁i	-795
ose	-796
ဆုံး	-797
That	-798
ລິ	-799
onna	-800
eah	-801
တော်	-802
ោក	-803
ວນ	-804
omet	-805
▁his	-806
いた	-807
▁had	-808
ff	-809
pp	-810
app	-811
ause	-812
yang	-813
ដំណើរ	-814
သည်။	-815
လာ	-816
itt	-817
ពេល	-818
បី	-819
▁gonna	-820
▁kung	-821
▁lo	-822
hy	-823
່ມ	-824
ាញ	-825
ຫມ	-826
▁7	-827
ຸກ	-828
ပြု	-829
iz	-830
ູນ	-831
▁se	-832
အား	-833
▁ຫມ	-834
▁our	-835
yo	-836
ွဲ	-837
▁ma	-838
000	-839
▁,	-840
私は	-841
ုန်	-842
▁ស	-843
លោក	-844
もの	-845
しい	-846
▁.	-847
ပါတယ်။	-848
ဘာ	-849
▁been	-850
ire	-851
ຢ່າງ	-852
ere	-853
▁ລັບ	-854
▁br	-855
▁ທ່ານ	-856
▁could	-857
ដើ	-858
ous	-859
ົມ	-860
per	-861
ງານ	-862
ຫລ	-863
ari	-864
ສາ	-865
အသ	-866
ass	-867
ວິ	-868
ំព	-869
▁thing	-870
້າງ	-871
other	-872
တွင်	-873
ເຮັດ	-874
▁good	-875
kay	-876
ជាមួយ	-877
▁ປີ	-878
ເຊ	-879
▁la	-880
ber	-881
ဟုတ်	-882
ែង	-883
ែក	-884
ស្ស	-885
យើង	-886
່າວ	-887
ត្រូវបាន	-888
ສາມາດ	-889
▁8	-890
័យ	-891
どう	-892
គេ	-893
ຍັງ	-894
គឺ	-895
ey	-896
られ	-897
ບັນ	-898
្ថ	-899
ផ្ត	-900
▁off	-901
のは	-902
នៅក្នុង	-903
lo	-904
အလ	-905
ផ្ស	-906
တော့	-907
ເຈົ້າ	-908
ma	-909
ບໍ	-910
ွေ	-911
▁ib	-912
▁im	-913
▁pin	-914
ထား	-915
ri	-916
ຄົນ	-917
ມ່	-918
act	-919
▁pang	-920
ila	-921
ើយ	-922
▁tell	-923
ပါ။	-924
ရန်	-925
▁every	-926
▁when	-927
ស្រ	-928
ໃຈ	-929
ສໍາ	-930
▁come	-931
▁pe	-932
ຕ້ອງ	-933
ີນ	-934
ើន	-935
ိမ်	-936
▁pam	-937
▁nak	-938
ប៉	-939
▁sin	-940
ໍ້	-941
ម្បី	-942
▁ຮ	-943
ven	-944
နှစ်	-945
ih	-946
້ວ	-947
ືອນ	-948
そう	-949
ឹក	-950
ຕໍ່	-951
▁ຈະ	-952
▁how	-953
▁kanyang	-954
တစ်ခု	-955
thing	-956
▁by	-957
ta	-958
ge	-959
ople	-960
▁န	-961
ຫຼາຍ	-962
reat	-963
aan	-964
ព្រ	-965
ອາ	-966
▁down	-967
なた	-968
▁>	-969
ដើម្បី	-970
▁somet	-971
かった	-972
ເສ	-973
="	-974
ຽນ	-975
ough	-976
でしょう	-977
んな	-978
▁ni	-979
ment	-980
ife	-981
ួល	-982
Well	-983
あなた	-984
▁work	-985
ុំ	-986
oon	-987
▁In	-988
ိန်	-989
▁ຄົນ	-990
ိပ်	-991
ຽງ	-992
ម៉	-993
▁more	-994
▁start	-995
▁It	-996
ລັບ	-997
ທາງ	-998
▁take	-999
သို့	-1000
▁really	-1001
បង្	-1002
ទាំង	-1003
▁cl	-1004
uw	-1005
ឱ្យ	-1006
စာ	-1007
▁mar	-1008
နှင့်အ	-1009
▁mal	-1010
ကြီး	-1011
ek	-1012
ກັນ	-1013
បន្	-1014
This	-1015
ish	-1016
ပေါ်	-1017
ress	-1018
ft	-1019
ue	-1020
ិច	-1021
pt	-1022
ផ្	-1023
ថា	-1024
."	-1025
မဟုတ်	-1026
▁9	-1027
ຖິງ	-1028
ເກ	-1029
ich	-1030
iss	-1031
▁didn	-1032
alang	-1033
▁has	-1034
ord	-1035
▁way	-1036
ື່ອງ	-1037
Oh	-1038
ំប	-1039
ເຄ	-1040
▁gr	-1041
▁en	-1042
10	-1043
ຊີ	-1044
ាល់	-1045
▁bag	-1046
itan	-1047
私たち	-1048
မျိုး	-1049
လျ	-1050
age	-1051
▁lahat	-1052
ພວກເຮົາ	-1053
ahan	-1054
ယာ	-1055
▁'	-1056
ຫາ	-1057
▁ကျွန်	-1058
▁talk	-1059
uch	-1060
▁people	-1061
ហ៊	-1062
လုံး	-1063
▁over	-1064
ັ່ງ	-1065
▁niya	-1066
စည်း	-1067
なく	-1068
▁call	-1069
They	-1070
စွ	-1071
ហ៊ុន	-1072
▁something	-1073
ົກ	-1074
ឡើង	-1075
▁bec	-1076
abi	-1077
▁happ	-1078
▁ဆ	-1079
▁ដែល	-1080
ຕິ	-1081
▁ako	-1082
▁pagk	-1083
old	-1084
ແຕ່	-1085
und	-1086
ame	-1087
asyon	-1088
▁The	-1089
▁ပြ	-1090
່ອນ	-1091
▁ဒါ	-1092
ອີ	-1093
ដ៏	-1094
▁ຄວາມ	-1095
iyang	-1096
ເທດ	-1097
tr	-1098
သင်	-1099
▁ບໍ່	-1100
ach	-1101
ហើយ	-1102
ုန်း	-1103
ក្រុមហ៊ុន	-1104
ໂດຍ	-1105
ther	-1106
ile	-1107
▁year	-1108
▁ກໍາ	-1109
▁។	-1110
អាក	-1111
▁qu	-1112
ဖွ	-1113
ដូ	-1114
ama	-1115
▁Tr	-1116
▁sc	-1117
▁ພວກ	-1118
រួ	-1119
▁day	-1120
ens	-1121
ထုတ်	-1122
▁make	-1123
▁ក	-1124
▁bl	-1125
She	-1126
▁let	-1127
ody	-1128
បញ	-1129
າວ	-1130
ree	-1131
でした	-1132
ຕະ	-1133
ること	-1134
ပုံ	-1135
មិន	-1136
int	-1137
ាគ	-1138
▁200	-1139
ကြောင်း	-1140
ဆောင်	-1141
ខ្ល	-1142
ត្តិ	-1143
ial	-1144
man	-1145
ພາບ	-1146
▁ດ	-1147
မှတ်	-1148
▁said	-1149
ool	-1150
▁fe	-1151
いました	-1152
▁dr	-1153
sel	-1154
▁never	-1155
່ວນ	-1156
のか	-1157
50	-1158
だけ	-1159
cc	-1160
ittle	-1161
▁nang	-1162
តែ	-1163
ເດ	-1164
រដ្ឋ	-1165
້ານ	-1166
▁We	-1167
▁tw	-1168
▁ເຮ	-1169
▁should	-1170
ble	-1171
ito	-1172
េរ	-1173
▁$	-1174
ដល់	-1175
▁បាន	-1176
ond	-1177
▁ເພ	-1178
អាកាស	-1179
そして	-1180
ທັງ	-1181
▁too	-1182
ໂລ	-1183
▁kay	-1184
▁ការ	-1185
えて	-1186
ວິດ	-1187
ought	-1188
ရွ	-1189
▁?	-1190
れば	-1191
ဝင်	-1192
ເຫ	-1193
mer	-1194
▁si	-1195
If	-1196
▁very	-1197
▁guy	-1198
▁သူ	-1199
មក	-1200
ໃດ	-1201
ယူ	-1202
▁ro	-1203
လက်	-1204
ាស់	-1205
さん	-1206
ເວລາ	-1207
▁then	-1208
ີ່ມ	-1209
▁mula	-1210
អាច	-1211
ແບ	-1212
ອດ	-1213
▁mas	-1214
ため	-1215
មី	-1216
ພະ	-1217
▁And	-1218
ວຍ	-1219
ho	-1220
ayon	-1221
ើស	-1222
ຕົວ	-1223
▁Th	-1224
ると	-1225
រួម	-1226
▁ນໍາ	-1227
▁What	-1228
orm	-1229
စက်	-1230
ົ້ນ	-1231
ount	-1232
្គ	-1233
いい	-1234
oll	-1235
ating	-1236
ຕັ້ງ	-1237
able	-1238
ថ្ង	-1239
▁kas	-1240
▁ວ່າ	-1241
ວຽ	-1242
ធី	-1243
ថ្ងៃ	-1244
amp	-1245
တစ်ဦး	-1246
ကွ	-1247
▁&	-1248
ລ້ວ	-1249
ធ្វើដំណើរ	-1250
ပါတယ်	-1251
port	-1252
▁little	-1253
▁អ	-1254
ນັ້ນ	-1255
ark	-1256
ance	-1257
ary	-1258
ន៍	-1259
How	-1260
ting	-1261
ကုန်	-1262
ທີ່ສຸດ	-1263
irst	-1264
を見	-1265
စ္	-1266
▁pan	-1267
ក្រុង	-1268
ili	-1269
amit	-1270
မည်	-1271
ငါ	-1272
ပျ	-1273
oh	-1274
ນະ	-1275
します	-1276
ោល	-1277
alag	-1278
hone	-1279
▁He	-1280
ade	-1281
ne	-1282
▁ဒီ	-1283
▁pamam	-1284
▁_	-1285
အခ	-1286
ここ	-1287
ချိန်	-1288
ເມ	-1289
irl	-1290
lease	-1291
19	-1292
ເຂົາ	-1293
be	-1294
▁does	-1295
တင်	-1296
່າຍ	-1297
▁only	-1298
ាហ	-1299
aar	-1300
aking	-1301
▁Ang	-1302
しか	-1303
မယ်	-1304
apat	-1305
្ជ	-1306
သား	-1307
ငျ	-1308
▁ad	-1309
世界	-1310
ຖານ	-1311
▁where	-1312
▁ນີ້	-1313
なら	-1314
ື່ນ	-1315
▁mean	-1316
Sa	-1317
ទទ	-1318
▁bet	-1319
များအတွက်	-1320
▁ព័ត៌មានទេសចរណ៍	-1321
▁ເຊ	-1322
ិស	-1323
Yeah	-1324
iw	-1325
lp	-1326
▁ໃຫ້	-1327
လေ	-1328
▁No	-1329
しました	-1330
ຂໍ້	-1331
လှ	-1332
れて	-1333
,000	-1334
ayan	-1335
▁pre	-1336
▁kill	-1337
ຸນ	-1338
ໃຫມ່	-1339
ကောင်း	-1340
▁dis	-1341
あります	-1342
បំ	-1343
ណ្	-1344
နည်း	-1345
ເຂົ້າ	-1346
apag	-1347
ວກັບ	-1348
▁other	-1349
ult	-1350
aka	-1351
ភព	-1352
ning	-1353
私の	-1354
ait	-1355
គាត់	-1356
▁នៅ	-1357
▁ກັບ	-1358
េង	-1359
▁ဘ	-1360
▁per	-1361
的な	-1362
ild	-1363
ina	-1364
ຜົນ	-1365
ុត	-1366
ように	-1367
Do	-1368
ຸມ	-1369
ຖ້າ	-1370
ិច្ច	-1371
▁ខ	-1372
ទទួល	-1373
At	-1374
▁ຄໍາ	-1375
gain	-1376
ບໍລິ	-1377
ຶ້ນ	-1378
これは	-1379
ຶກ	-1380
ជាតិ	-1381
自分	-1382
ອອກ	-1383
っと	-1384
စီ	-1385
ເຕ	-1386
ット	-1387
▁fuck	-1388
▁ຍ	-1389
oss	-1390
ຂ້ອຍ	-1391
တွေကို	-1392
▁two	-1393
စဉ်	-1394
oc	-1395
ions	-1396
▁bu	-1397
ရိ	-1398
▁ເຂ	-1399
မ္	-1400
ady	-1401
▁because	-1402
ata	-1403
យ៉	-1404
ុក	-1405
▁love	-1406
្ម	-1407
ons	-1408
ika	-1409
▁res	-1410
▁aking	-1411
ညာ	-1412
ွှ	-1413
ກະ	-1414
There	-1415
▁these	-1416
▁ປ	-1417
နှင့်	-1418
ather	-1419
ជន	-1420
▁ໄ	-1421
▁ຜູ້	-1422
່ຽວກັບ	-1423
agitan	-1424
▁help	-1425
より	-1426
える	-1427
ាប	-1428
ည့်	-1429
ួក	-1430
្ធ	-1431
An	-1432
ទីក្រុង	-1433
ory	-1434
イン	-1435
▁even	-1436
້າຍ	-1437
くれ	-1438
▁0	-1439
▁kam	-1440
ផល	-1441
tern	-1442
▁pamamagitan	-1443
彼女	-1444
ວຽກ	-1445
として	-1446
ター	-1447
▁ຫນຶ່ງ	-1448
じゃ	-1449
▁again	-1450
必要	-1451
សម	-1452
ren	-1453
Is	-1454
မဲ့	-1455
နာ	-1456
ခြား	-1457
と思	-1458
▁ຫຼື	-1459
self	-1460
▁their	-1461
▁much	-1462
っている	-1463
Why	-1464
ック	-1465
ກວ່າ	-1466
စု	-1467
ຖະ	-1468
ແບບ	-1469
▁into	-1470
get	-1471
▁pa	-1472
ປະເທດ	-1473
▁el	-1474
ូន	-1475
ណ្ត	-1476
▁wr	-1477
ຜະລ	-1478
ような	-1479
វា	-1480
ດ້ວຍ	-1481
ຜະລິດ	-1482
oney	-1483
ູງ	-1484
ពួក	-1485
ផ្ល	-1486
▁won	-1487
အရ	-1488
▁Is	-1489
ື້ນ	-1490
ence	-1491
▁ຢູ່	-1492
▁part	-1493
▁min	-1494
▁Un	-1495
day	-1496
ທີ່ຈະ	-1497
ely	-1498
តាម	-1499
▁12	-1500
▁af	-1501
ົ່ວ	-1502
ເຖິງ	-1503
▁under	-1504
▁find	-1505
គោល	-1506
ច្រ	-1507
orry	-1508
ater	-1509
သာ	-1510
ចំណ	-1511
ជី	-1512
ູບ	-1513
eep	-1514
ຕາມ	-1515
នុ	-1516
In	-1517
ີດ	-1518
▁ແຕ່	-1519
▁doing	-1520
urn	-1521
ຄື	-1522
စေ	-1523
ຮູ້	-1524
▁first	-1525
ໄດ້ຮັບ	-1526
bo	-1527
Don	-1528
▁years	-1529
▁nat	-1530
リー	-1531
ូរ	-1532
ប្រក	-1533
ແນ	-1534
ahil	-1535
ကျွန်	-1536
ຍ່	-1537
ທະ	-1538
နှင့်အတူ	-1539
ဆိုပါ	-1540
ສ້າງ	-1541
ថ្មី	-1542
ကာ	-1543
ump	-1544
▁ຈໍາ	-1545
▁why	-1546
ចូល	-1547
စိတ်	-1548
▁ຫນ້າ	-1549
んで	-1550
▁te	-1551
ມືອງ	-1552
ha	-1553
もし	-1554
ចំន	-1555
ထဲ	-1556
ated	-1557
ផុត	-1558
ဂျ	-1559
នា	-1560
▁202	-1561
ayo	-1562
▁life	-1563
apos	-1564
ຣະ	-1565
ty	-1566
▁ခ	-1567
My	-1568
▁30	-1569
30	-1570
▁pat	-1571
ចំនួន	-1572
နောက်	-1573
ical	-1574
ທິ	-1575
▁ask	-1576
ສໍາລັບ	-1577
ទ្ធ	-1578
ាណ	-1579
ပို	-1580
ໍານ	-1581
ります	-1582
ត់	-1583
▁18	-1584
ilangan	-1585
ສ່ວນ	-1586
▁X	-1587
▁ហើយ	-1588
▁100	-1589
ដូច	-1590
ື້	-1591
▁ຈາກ	-1592
ធាន	-1593
ສິ່ງ	-1594
ign	-1595
ເພື່ອ	-1596
▁ເລ	-1597
▁feel	-1598
▁ເຈົ້າ	-1599
သုံး	-1600
fore	-1601
ໃຫຍ່	-1602
ທີ່ມີ	-1603
▁ມັນ	-1604
unit	-1605
ံ့	-1606
ຮງ	-1607
ເບ	-1608
▁ag	-1609
xt	-1610
ပိုင်း	-1611
កិច្ច	-1612
သိ	-1613
▁act	-1614
ូប	-1615
ត្ថ	-1616
ကား	-1617
ផ្តល់	-1618
まで	-1619
ise	-1620
につ	-1621
amang	-1622
▁sup	-1623
▁ဖ	-1624
គឺជា	-1625
▁new	-1626
ール	-1627
ows	-1628
လို့	-1629
ပြင်	-1630
ក្នុងការ	-1631
ុប	-1632
ေါ်	-1633
している	-1634
ors	-1635
ありません	-1636
▁bel	-1637
▁At	-1638
ບັດ	-1639
ច្រើន	-1640
ရုံ	-1641
▁「	-1642
Now	-1643
aya	-1644
alan	-1645
များကို	-1646
▁ທໍາ	-1647
▁Ar	-1648
ិត្ត	-1649
ဘူး	-1650
▁それ	-1651
1.	-1652
mm	-1653
ဆက်	-1654
▁ser	-1655
12	-1656
▁girl	-1657
▁New	-1658
Hindi	-1659
co	-1660
ຍາ	-1661
彼ら	-1662
ກິດ	-1663
▁kaniyang	-1664
▁15	-1665
▁fri	-1666
te	-1667
▁dur	-1668
がある	-1669
rop	-1670
▁give	-1671
ពីរ	-1672
ົ່ງ	-1673
ily	-1674
▁မှ	-1675
▁long	-1676
ລາຍ	-1677
ើត	-1678
▁car	-1679
▁than	-1680
និយ	-1681
ែន	-1682
ពិភព	-1683
▁friend	-1684
red	-1685
ວິທີ	-1686
လိုက်	-1687
▁cr	-1688
ពួកគេ	-1689
ຂະ	-1690
▁Mr	-1691
にも	-1692
▁po	-1693
ໂລກ	-1694
▁ប្រ	-1695
လူ	-1696
្អ	-1697
ືອກ	-1698
ផ្ទ	-1699
angg	-1700
ຫານ	-1701
သွား	-1702
រក	-1703
လဲ	-1704
▁still	-1705
လျှ	-1706
▁hand	-1707
aman	-1708
▁gin	-1709
ork	-1710
ပေ	-1711
ິກ	-1712
iver	-1713
រយ	-1714
လေး	-1715
▁bab	-1716
ငွေ	-1717
ເງ	-1718
Hey	-1719
ရှင်	-1720
ied	-1721
អាហ	-1722
▁happen	-1723
ລົງ	-1724
ន់	-1725
ouse	-1726
ath	-1727
air	-1728
ຫນ້າ	-1729
បន្ទ	-1730
ហោះ	-1731
ដ្ឋាន	-1732
မျှ	-1733
▁“	-1734
ៀត	-1735
▁home	-1736
body	-1737
ពិភពលោក	-1738
ន្ធ	-1739
អំ	-1740
ဆိုင်	-1741
の人	-1742
スト	-1743
▁Z	-1744
ways	-1745
ປະກ	-1746
▁try	-1747
ຕ່າງ	-1748
ចាប់	-1749
▁ကြ	-1750
).	-1751
ុខ	-1752
ខ្លួន	-1753
we	-1754
ungk	-1755
ຜ່ານ	-1756
agk	-1757
▁rem	-1758
စ္စည်း	-1759
បំផុត	-1760
▁ໂດຍ	-1761
សេ	-1762
▁night	-1763
できる	-1764
ុះ	-1765
ພັນ	-1766
▁thought	-1767
ແລ້ວ	-1768
ner	-1769
▁comp	-1770
ရင်	-1771
ຂອງທ່ານ	-1772
asa	-1773
なかった	-1774
▁သင်	-1775
com	-1776
ືອ	-1777
15	-1778
▁Br	-1779
たい	-1780
န့်	-1781
▁anything	-1782
ລາວ	-1783
▁nags	-1784
我々	-1785
ទ្រ	-1786
ってる	-1787
さい	-1788
ករ	-1789
All	-1790
ក់	-1791
ibig	-1792
ိန်း	-1793
りました	-1794
ict	-1795
▁နှင့်	-1796
គ្ន	-1797
နစ်	-1798
だった	-1799
ຢູ່ໃນ	-1800
les	-1801
anc	-1802
▁sm	-1803
ည့်	-1804
▁Sh	-1805
▁put	-1806
▁thr	-1807
▁okay	-1808
ສູງ	-1809
ន្តរ	-1810
私が	-1811
ပညာ	-1812
bab	-1813
sh	-1814
▁mah	-1815
ណ្ឋ	-1816
▁ba	-1817
▁ເດ	-1818
uhay	-1819
ភិ	-1820
ခွ	-1821
▁told	-1822
ສັດ	-1823
▁ເພື່ອ	-1824
▁ເວ	-1825
ful	-1826
▁この	-1827
ရေ	-1828
ຂຶ້ນ	-1829
▁taon	-1830
▁before	-1831
">	-1832
ことが	-1833
問題	-1834
こう	-1835
ティ	-1836
្វី	-1837
▁proble	-1838
atch	-1839
▁ວັນ	-1840
▁何	-1841
បើ	-1842
▁ອາ	-1843
ທໍາ	-1844
▁things	-1845
បង្ក	-1846
iff	-1847
ရှင်း	-1848
▁real	-1849
ມູນ	-1850
しかし	-1851
ែម	-1852
កំព	-1853
▁app	-1854
ໄລ	-1855
▁ip	-1856
gr	-1857
▁Pang	-1858
▁Al	-1859
អាកាសចរណ៍	-1860
▁2018	-1861
ខាង	-1862
ull	-1863
▁tao	-1864
အထ	-1865
វិញ	-1866
▁last	-1867
▁sec	-1868
aug	-1869
▁hig	-1870
ことを	-1871
ໃນການ	-1872
wn	-1873
▁kat	-1874
່ວຍ	-1875
ことです	-1876
▁ap	-1877
ທຸກ	-1878
▁kid	-1879
▁ဖြစ်	-1880
အဘ	-1881
ail	-1882
について	-1883
alaw	-1884
ະນາ	-1885
ັ່ນ	-1886
ュー	-1887
ន្ល	-1888
18	-1889
ious	-1890
ម្ល	-1891
▁must	-1892
ຄໍາ	-1893
ောင့်	-1894
けて	-1895
ခြေ	-1896
မာ	-1897
ash	-1898
▁big	-1899
そこ	-1900
彼は	-1901
me	-1902
ible	-1903
ແດ	-1904
ជាមួយនឹង	-1905
ert	-1906
ដៅ	-1907
កាន់	-1908
▁kanilang	-1909
ພິ	-1910
sa	-1911
បត្តិ	-1912
ມານ	-1913
▁che	-1914
အစား	-1915
so	-1916
▁–	-1917
人の	-1918
ល្អ	-1919
▁away	-1920
▁လူ	-1921
▁Re	-1922
▁world	-1923
Let	-1924
ွေး	-1925
ເນ	-1926
ຮູບ	-1927
ູກ	-1928
▁co	-1929
ually	-1930
erson	-1931
んです	-1932
တွေ့	-1933
ប្រតិ	-1934
▁acc	-1935
▁။	-1936
もう	-1937
ຕາ	-1938
မိ	-1939
abah	-1940
io	-1941
ont	-1942
▁[	-1943
▁bah	-1944
ໄວ	-1945
ເຫັນ	-1946
bs	-1947
▁An	-1948
သက်	-1949
မြင်	-1950
ទៀត	-1951
ins	-1952
ຕົ້ນ	-1953
▁anak	-1954
uc	-1955
▁well	-1956
ណ្ឌ	-1957
めて	-1958
រ៉	-1959
យ៉ាង	-1960
▁those	-1961
ពិស	-1962
បច	-1963
▁That	-1964
れた	-1965
2.	-1966
▁၏	-1967
ຊາ	-1968
ပဲ	-1969
alak	-1970
ວງ	-1971
▁)	-1972
ဖြင့်	-1973
ແຕ	-1974
တော်တို့	-1975
▁sure	-1976
່ວມ	-1977
uha	-1978
16	-1979
ອື່ນ	-1980
▁lot	-1981
▁Mar	-1982
ະນະ	-1983
မား	-1984
សហ	-1985
ាច	-1986
hed	-1987
▁Gr	-1988
နှုန်း	-1989
ដែលមាន	-1990
ート	-1991
▁din	-1992
សារ	-1993
ပစ္စည်း	-1994
▁str	-1995
ກ່ຽວກັບ	-1996
របស់អ្នក	-1997
▁bilang	-1998
▁lang	-1999
ເອ	-2000
Come	-2001
တိ	-2002
ເຄື່ອງ	-2003
အသုံး	-2004
ណៈ	-2005
្ញុំ	-2006
ラン	-2007
ະລັດ	-2008
ino	-2009
▁ໄປ	-2010
စွာ	-2011
▁ngayon	-2012
ေ့	-2013
ても	-2014
▁ໃຫມ່	-2015
▁ຫມາຍ	-2016
ປະສ	-2017
ပွ	-2018
rist	-2019
មេរ	-2020
St	-2021
▁kind	-2022
▁sorry	-2023
របស់យើង	-2024
រយៈ	-2025
ろう	-2026
▁araw	-2027
awan	-2028
ຊີວິດ	-2029
▁fl	-2030
▁money	-2031
▁|	-2032
▁その	-2033
សំ	-2034
▁play	-2035
3.	-2036
ແກ	-2037
考え	-2038
▁around	-2039
▁ມາ	-2040
ဖွဲ့	-2041
▁belie	-2042
អំពី	-2043
▁+	-2044
ສະຫ	-2045
ဝါ	-2046
▁iyo	-2047
れる	-2048
の中	-2049
້ອນ	-2050
▁50	-2051
နေ့	-2052
▁walang	-2053
စစ်	-2054
ual	-2055
នូវ	-2056
▁kar	-2057
ລະບ	-2058
▁iP	-2059
abaho	-2060
land	-2061
▁better	-2062
បទ	-2063
▁Air	-2064
ungkol	-2065
▁ik	-2066
oot	-2067
ກ່າວ	-2068
ເງິນ	-2069
ໃສ	-2070
ເມືອງ	-2071
▁great	-2072
▁Fr	-2073
အပ်	-2074
aming	-2075
▁—	-2076
ລັດ	-2077
Yes	-2078
ved	-2079
しています	-2080
▁Pr	-2081
May	-2082
စီး	-2083
တ္	-2084
▁お	-2085
させ	-2086
atapos	-2087
▁ever	-2088
amb	-2089
ける	-2090
ပေါင်း	-2091
時間	-2092
ange	-2093
▁care	-2094
pap	-2095
olog	-2096
▁Q	-2097
▁တစ်	-2098
▁Ex	-2099
မီ	-2100
ສອງ	-2101
aught	-2102
ូង	-2103
▁after	-2104
▁minut	-2105
▁လုပ်	-2106
--	-2107
េញ	-2108
វិធី	-2109
ជម្រ	-2110
リカ	-2111
▁2019	-2112
▁sum	-2113
လည်း	-2114
ກໍາ	-2115
ស៊ី	-2116
ရီ	-2117
ទេ	-2118
ational	-2119
▁wait	-2120
っています	-2121
ຮຽນ	-2122
ເລືອກ	-2123
ix	-2124
ana	-2125
AT	-2126
▁name	-2127
ပြန်	-2128
▁old	-2129
4.	-2130
အဖြစ်	-2131
သံ	-2132
မျက်	-2133
ង្គ	-2134
ជាង	-2135
orr	-2136
▁App	-2137
によ	-2138
នៃការ	-2139
▁boy	-2140
しま	-2141
inoon	-2142
alik	-2143
Look	-2144
▁ដោយ	-2145
ញ្ញ	-2146
▁bit	-2147
ier	-2148
なぜ	-2149
ាគារ	-2150
បរ	-2151
▁always	-2152
បន្ថ	-2153
多く	-2154
ubl	-2155
だと	-2156
▁16	-2157
ຫຍັງ	-2158
▁hal	-2159
▁wom	-2160
ower	-2161
▁Oh	-2162
ប្រាក់	-2163
▁dahil	-2164
▁ins	-2165
▁int	-2166
ຕ້ອງການ	-2167
ພວກເຂົາ	-2168
່ຽນ	-2169
▁Pro	-2170
អាមេរ	-2171
Okay	-2172
▁aming	-2173
အကြ	-2174
ប៉ុ	-2175
ember	-2176
လမ်း	-2177
ລະຫ	-2178
aano	-2179
40	-2180
▁sila	-2181
ov	-2182
▁saan	-2183
どこ	-2184
ສະຫນ	-2185
▁ကျွန်မ	-2186
ຊື່	-2187
ညီ	-2188
ech	-2189
ទ្យ	-2190
ວດ	-2191
▁place	-2192
▁keep	-2193
្នាក់	-2194
ព័ន្ធ	-2195
uan	-2196
▁Cl	-2197
ဝန်	-2198
▁hav	-2199
ទំន	-2200
▁made	-2201
▁ide	-2202
ຄ້າ	-2203
▁စက်	-2204
▁hum	-2205
▁ຫມົດ	-2206
▁tin	-2207
pr	-2208
▁doesn	-2209
បញ្ច	-2210
ປະຕິ	-2211
▁2017	-2212
ငံ	-2213
なる	-2214
ុល	-2215
▁des	-2216
វិស	-2217
▁ລັງ	-2218
ode	-2219
អ៊ី	-2220
▁gum	-2221
まり	-2222
ວ່າງ	-2223
ការណ៍	-2224
▁Pl	-2225
▁ນັ້ນ	-2226
▁သို့	-2227
ួរ	-2228
ດ້ານ	-2229
akit	-2230
aaring	-2231
▁please	-2232
ົ່າ	-2233
ប្ត	-2234
ວັດ	-2235
▁pol	-2236
11	-2237
▁akin	-2238
ເດືອນ	-2239
gle	-2240
同じ	-2241
ရုတ်	-2242
▁ເທ	-2243
ics	-2244
ret	-2245
isten	-2246
alawang	-2247
),	-2248
▁US	-2249
ev	-2250
ຕິດ	-2251
▁guys	-2252
້ມ	-2253
大き	-2254
រង	-2255
▁cour	-2256
▁lamang	-2257
az	-2258
ທານ	-2259
နိုင်ငံ	-2260
သွင်း	-2261
▁ເຫ	-2262
oup	-2263
້າພະ	-2264
▁Panginoon	-2265
を持	-2266
じゃない	-2267
Just	-2268
ရည်	-2269
អាមេរិក	-2270
ရောက်	-2271
ດາ	-2272
▁ass	-2273
▁Bl	-2274
ator	-2275
ism	-2276
លើក	-2277
stand	-2278
▁stop	-2279
ຈັດ	-2280
່ຽວ	-2281
ີຍ	-2282
တည်	-2283
ano	-2284
ຮ່ວມ	-2285
▁ឆ្នាំ	-2286
idad	-2287
បង្ហ	-2288
ជ្ជ	-2289
Ito	-2290
いつ	-2291
ັງຈາກ	-2292
គ្រប់	-2293
hes	-2294
ကု	-2295
line	-2296
▁kal	-2297
្រី	-2298
သို့မဟုတ်	-2299
လည်	-2300
chool	-2301
အသုံးပြု	-2302
▁fun	-2303
Not	-2304
pos	-2305
ny	-2306
ado	-2307
ပတ်	-2308
▁ເກ	-2309
ero	-2310
とは	-2311
imes	-2312
▁ក្នុង	-2313
ために	-2314
▁through	-2315
Are	-2316
ຫມາຍ	-2317
ផ្សារ	-2318
▁God	-2319
ំបន់	-2320
ຮັກ	-2321
When	-2322
ជម្រើស	-2323
ကန်	-2324
▁mong	-2325
▁sur	-2326
▁nothing	-2327
17	-2328
cr	-2329
だから	-2330
▁fam	-2331
ကူ	-2332
▁သူတို့	-2333
▁op	-2334
ている	-2335
ກົດ	-2336
្សា	-2337
▁ထုတ်	-2338
▁wanted	-2339
ပွဲ	-2340
usto	-2341
ឧស្ស	-2342
ឧស្សាហ	-2343
ient	-2344
▁tul	-2345
ident	-2346
ឈ្ម	-2347
ညျ	-2348
▁Amer	-2349
បង្ហាញ	-2350
▁ໃຊ້	-2351
▁25	-2352
វិស័យ	-2353
▁អ្នក	-2354
ဒ်	-2355
ເຫຼ	-2356
ຊົນ	-2357
▁bagay	-2358
အဆ	-2359
ສົ່ງ	-2360
▁which	-2361
ឧស្សាហកម្ម	-2362
တွင်း	-2363
ដឹក	-2364
ប្រតិបត្តិ	-2365
ထုတ်လုပ်	-2366
arl	-2367
ings	-2368
▁believe	-2369
▁ngunit	-2370
ພາະ	-2371
▁Sa	-2372
avel	-2373
▁hear	-2374
ရီး	-2375
ye	-2376
ចិត្ត	-2377
▁24	-2378
▁ເຮັດ	-2379
▁និងការ	-2380
ags	-2381
があります	-2382
▁iba	-2383
私たちは	-2384
តំបន់	-2385
▁tum	-2386
uff	-2387
▁မြ	-2388
▁11	-2389
▁everything	-2390
my	-2391
▁diff	-2392
္ဂ	-2393
▁stay	-2394
រី	-2395
ດັບ	-2396
ທິດ	-2397
ួញ	-2398
ປີດ	-2399
ນໍາ	-2400
Where	-2401
ຫຍ	-2402
ことは	-2403
▁tungkol	-2404
ations	-2405
▁ຕໍ່	-2406
တန်း	-2407
▁kap	-2408
လ်	-2409
Did	-2410
▁person	-2411
ភាគ	-2412
ແດງ	-2413
တင်း	-2414
ディ	-2415
ກໍ່	-2416
▁sl	-2417
ທະນາ	-2418
▁show	-2419
န္	-2420
eng	-2421
ວມ	-2422
ເບິ່ງ	-2423
▁ន	-2424
တိုင်း	-2425
ຫມົດ	-2426
▁maaaring	-2427
ကိုယ်	-2428
ណ្ឋាគារ	-2429
▁២	-2430
ប្រើ	-2431
န့်	-2432
တက်	-2433
ພຽງ	-2434
▁និងទេសចរណ៍	-2435
▁bus	-2436
សាស	-2437
ທີ່ດີ	-2438
▁ilang	-2439
້ອມ	-2440
▁own	-2441
▁:	-2442
分か	-2443
▁ຢ	-2444
យន្ត	-2445
yst	-2446
▁အား	-2447
▁father	-2448
ize	-2449
ever	-2450
ោង	-2451
▁mon	-2452
ຈໍາ	-2453
pect	-2454
alaga	-2455
ເຕີ	-2456
ទីផ្សារ	-2457
▁17	-2458
▁run	-2459
ាធ	-2460
oogle	-2461
្ជា	-2462
▁left	-2463
asan	-2464
ຸ່ມ	-2465
▁dec	-2466
ຂໍ້ມູນ	-2467
orn	-2468
ខាន់	-2469
13	-2470
IN	-2471
ption	-2472
▁kah	-2473
るの	-2474
ohn	-2475
きました	-2476
ks	-2477
ပြော	-2478
ែរ	-2479
Your	-2480
ជីវ	-2481
သူတို့	-2482
ငန်း	-2483
វេ	-2484
load	-2485
ើម	-2486
ជំ	-2487
された	-2488
▁mab	-2489
べき	-2490
ຄ່າ	-2491
▁house	-2492
ហ្ស	-2493
▁leave	-2494
▁understand	-2495
son	-2496
က္	-2497
ica	-2498
uct	-2499
ရား	-2500
ener	-2501
អស់	-2502
▁រ	-2503
▁ເດືອນ	-2504
ស្ត	-2505
ເຮັດວຽກ	-2506
▁She	-2507
aughter	-2508
ៀវ	-2509
▁done	-2510
▁buhay	-2511
မှန်	-2512
子供	-2513
ates	-2514
▁lar	-2515
つの	-2516
と言	-2517
ណ្តាល	-2518
အပေါ်	-2519
ទូ	-2520
▁lib	-2521
60	-2522
▁imp	-2523
▁mother	-2524
▁fucking	-2525
▁isa	-2526
បង្កើត	-2527
្នែក	-2528
ton	-2529
ition	-2530
ai	-2531
ihin	-2532
yong	-2533
ဆေး	-2534
Can	-2535
ຽວ	-2536
▁il	-2537
យក	-2538
▁ກ່າວ	-2539
ိမ့်	-2540
どの	-2541
မူ	-2542
ern	-2543
▁ငါ	-2544
本当	-2545
▁found	-2546
▁being	-2547
▁many	-2548
otel	-2549
ex	-2550
ក្	-2551
▁head	-2552
▁sim	-2553
បន្ទាប់	-2554
▁room	-2555
eg	-2556
ືນ	-2557
ios	-2558
▁rel	-2559
မေ	-2560
သင့်	-2561
ປ່ຽນ	-2562
ital	-2563
▁ກໍ	-2564
ສານ	-2565
25	-2566
それは	-2567
ရောင်	-2568
ໄຟ	-2569
▁plan	-2570
សំខាន់	-2571
ជំន	-2572
ាវ	-2573
ន្ន	-2574
▁inv	-2575
ード	-2576
▁today	-2577
▁Yeah	-2578
▁So	-2579
ດັ່ງ	-2580
▁sir	-2581
ရပ်	-2582
▁might	-2583
.0	-2584
14	-2585
▁came	-2586
ets	-2587
▁2016	-2588
▁lab	-2589
▁mom	-2590
▁coming	-2591
的に	-2592
າຍຸ	-2593
အောင်	-2594
ទំ	-2595
ເພີ່ມ	-2596
ស្	-2597
Who	-2598
ບໍ່ມີ	-2599
ント	-2600
可能	-2601
inig	-2602
ວິທີການ	-2603
なの	-2604
ខ្ញុំ	-2605
▁ກັນ	-2606
ນ້ອຍ	-2607
▁ເມ	-2608
▁Ma	-2609
ໂຄ	-2610
研究	-2611
ကြား	-2612
▁kab	-2613
▁kin	-2614
វិទ្យ	-2615
▁em	-2616
້າພະເຈົ້າ	-2617
▁three	-2618
取り	-2619
aroon	-2620
ຊາດ	-2621
ောင့်	-2622
ເສຍ	-2623
▁sal	-2624
ပါသည်	-2625
▁bad	-2626
▁များ	-2627
ອິດ	-2628
▁sinabi	-2629
လီ	-2630
ນ້	-2631
awin	-2632
ED	-2633
▁Sp	-2634
កំណ	-2635
▁နှစ်	-2636
.5	-2637
▁sab	-2638
ពស់	-2639
▁ເຂົາ	-2640
បន្ថែម	-2641
ផ្លូវ	-2642
ໂມ	-2643
▁Co	-2644
មុខ	-2645
မီး	-2646
▁ສໍາລັບ	-2647
ကနေ	-2648
▁pags	-2649
ປະຕິບັດ	-2650
▁あ	-2651
▁ເຊິ່ງ	-2652
ote	-2653
▁Ad	-2654
ဓာ	-2655
▁child	-2656
err	-2657
ဒေ	-2658
▁ល	-2659
▁um	-2660
roid	-2661
▁14	-2662
និយាយ	-2663
ແຜ	-2664
80	-2665
AN	-2666
aut	-2667
ago	-2668
ars	-2669
また	-2670
ក្ត	-2671
ដាក់	-2672
▁oras	-2673
ystem	-2674
ျေး	-2675
▁2020	-2676
ကယ်	-2677
ົ່ານ	-2678
indows	-2679
នី	-2680
▁week	-2681
▁rec	-2682
とても	-2683
ກາ	-2684
ោគ	-2685
ines	-2686
ຍະ	-2687
ရင်း	-2688
ການສ	-2689
▁bat	-2690
ထွ	-2691
ແຂ	-2692
uss	-2693
အင်	-2694
Al	-2695
Siya	-2696
▁!	-2697
នាំ	-2698
▁ເສ	-2699
နှာ	-2700
▁လက်	-2701
▁num	-2702
ោម	-2703
anna	-2704
▁Com	-2705
ves	-2706
を作	-2707
人間	-2708
▁ប្រទេស	-2709
ward	-2710
iving	-2711
▁pinak	-2712
សម្	-2713
ware	-2714
▁ເຮົາ	-2715
form	-2716
に行	-2717
han	-2718
ives	-2719
cl	-2720
br	-2721
កម្មវិធី	-2722
ချင်း	-2723
ប្ប	-2724
▁most	-2725
きた	-2726
▁tag	-2727
▁dead	-2728
▁ເຖິງ	-2729
arm	-2730
ໃສ່	-2731
aari	-2732
▁naman	-2733
ាយក	-2734
ope	-2735
ock	-2736
ຫນຶ່ງ	-2737
ផ្នែក	-2738
▁end	-2739
ຫ່ງ	-2740
ទទួលបាន	-2741
anda	-2742
▁Mga	-2743
▁ຖືກ	-2744
្ថាន	-2745
enc	-2746
ပေမဲ့	-2747
▁ア	-2748
仕事	-2749
▁kami	-2750
່ອງ	-2751
ទិ	-2752
▁40	-2753
▁sw	-2754
ແປ	-2755
ອາດ	-2756
▁same	-2757
unt	-2758
၏အ	-2759
လား	-2760
ម្លៃ	-2761
မ္ဘာ	-2762
ជុំ	-2763
aba	-2764
ream	-2765
usay	-2766
ited	-2767
កំពុង	-2768
ວັນທີ	-2769
ເອົາ	-2770
anks	-2771
apan	-2772
ジェ	-2773
ーム	-2774
▁iPhone	-2775
ivers	-2776
▁else	-2777
▁problem	-2778
である	-2779
▁set	-2780
▁fin	-2781
ပြီ	-2782
▁13	-2783
女性	-2784
▁ដើម្បី	-2785
ຄິດ	-2786
စံ	-2787
ូម	-2788
▁All	-2789
aling	-2790
ိမ်း	-2791
ອີກ	-2792
yan	-2793
နေရာ	-2794
ຕອນ	-2795
ື່ອນ	-2796
តាំង	-2797
ox	-2798
になる	-2799
▁another	-2800
ami	-2801
တု	-2802
ຕີ	-2803
▁lum	-2804
ລັງ	-2805
▁meet	-2806
တည်း	-2807
ott	-2808
▁Don	-2809
お前	-2810
▁hard	-2811
str	-2812
▁met	-2813
ຄັ້ງ	-2814
人々	-2815
នៅលើ	-2816
ទឹក	-2817
全て	-2818
ផ្សេង	-2819
အမျိုး	-2820
សិ	-2821
▁ພຣະ	-2822
គ្នា	-2823
ရော	-2824
▁Can	-2825
ໃນປີ	-2826
သစ်	-2827
mail	-2828
kt	-2829
agd	-2830
បាល	-2831
ជ្រ	-2832
អនុ	-2833
▁nap	-2834
មូល	-2835
ລະຫວ່າງ	-2836
ER	-2837
agi	-2838
ຊຸມ	-2839
ています	-2840
သညျ	-2841
pe	-2842
စွမ်း	-2843
ချုပ်	-2844
មុន	-2845
▁looking	-2846
▁comm	-2847
iness	-2848
ື້ອ	-2849
▁ພະ	-2850
ပြား	-2851
តម្លៃ	-2852
▁How	-2853
▁happened	-2854
ອຍ	-2855
ໍານວນ	-2856
▁gl	-2857
▁trabaho	-2858
လုပ်ငန်း	-2859
▁hell	-2860
ason	-2861
မျက်နှာ	-2862
▁As	-2863
ន្លែង	-2864
និត	-2865
oth	-2866
អន្តរ	-2867
▁hangg	-2868
ထက်	-2869
▁saw	-2870
ecause	-2871
かな	-2872
ອມ	-2873
ຄາ	-2874
iet	-2875
နော်	-2876
ird	-2877
▁differe	-2878
起こ	-2879
ຫລາຍ	-2880
any	-2881
ນາ	-2882
ជីវកម្ម	-2883
ដំប	-2884
ບາງ	-2885
សណ្ឋាគារ	-2886
လွှ	-2887
▁actually	-2888
▁someone	-2889
▁next	-2890
ផ្តើម	-2891
ery	-2892
ければ	-2893
ອື່ນໆ	-2894
▁isn	-2895
▁school	-2896
များနှင့်	-2897
▁went	-2898
book	-2899
▁ago	-2900
ーク	-2901
▁အဆိုပါ	-2902
プロ	-2903
ンの	-2904
emat	-2905
▁job	-2906
ဘယ်	-2907
▁namin	-2908
▁--	-2909
▁remember	-2910
▁wrong	-2911
べて	-2912
Ng	-2913
▁ຖ	-2914
ນັກ	-2915
▁magk	-2916
▁talking	-2917
Sh	-2918
ាជ	-2919
ered	-2920
▁*	-2921
ບໍລິສັດ	-2922
បុ	-2923
បើក	-2924
ular	-2925
gether	-2926
TO	-2927
ພາກ	-2928
abang	-2929
အများ	-2930
からです	-2931
ຽມ	-2932
ជើង	-2933
နက်	-2934
ភ្ញ	-2935
အိမ်	-2936
▁ikaw	-2937
ແທ	-2938
▁best	-2939
人が	-2940
▁live	-2941
ຊາຍ	-2942
できます	-2943
▁turn	-2944
▁art	-2945
▁pagt	-2946
ឹម	-2947
ေါင်း	-2948
ID	-2949
Then	-2950
ali	-2951
ject	-2952
imb	-2953
ເລີ່ມ	-2954
ស្វ	-2955
OS	-2956
▁enough	-2957
ຫະ	-2958
អ្វី	-2959
▁miss	-2960
ころ	-2961
စုံ	-2962
Mga	-2963
ading	-2964
ဆိုင်ရာ	-2965
ព័រ	-2966
ulat	-2967
ပြောင်း	-2968
ento	-2969
lock	-2970
▁course	-2971
ဏီ	-2972
▁pap	-2973
als	-2974
▁ed	-2975
▁together	-2976
ពេញ	-2977
undo	-2978
▁2015	-2979
▁ອີ	-2980
ទៅកាន់	-2981
ຈຸ	-2982
に入	-2983
▁par	-2984
uro	-2985
ကျင်	-2986
▁ရှ	-2987
េច	-2988
場所	-2989
anan	-2990
အဘို့	-2991
▁med	-2992
ផលិត	-2993
▁count	-2994
▁pret	-2995
を使	-2996
▁cle	-2997
gan	-2998
ទាំងអស់	-2999
ທົ່ວ	-3000
ຊ່ວຍ	-3001
▁ສາມ	-3002
▁ຄັນ	-3003
▁Google	-3004
▁family	-3005
▁ຢ່າງ	-3006
▁dalawang	-3007
တာက	-3008
iko	-3009
▁cont	-3010
ເປີດ	-3011
感じ	-3012
iew	-3013
らない	-3014
စရာ	-3015
យុ	-3016
もしれ	-3017
いない	-3018
ale	-3019
ယာဉ်	-3020
?"	-3021
agawa	-3022
200	-3023
くだ	-3024
ឺរ៉	-3025
ລູກ	-3026
ものです	-3027
ກໍ	-3028
▁bre	-3029
▁trying	-3030
urt	-3031
ဆင်	-3032
အဆိုပါ	-3033
េត	-3034
គ្គ	-3035
▁အဲ	-3036
emb	-3037
▁maraming	-3038
၎င်း	-3039
▁pres	-3040
つけ	-3041
▁men	-3042
ຶກສາ	-3043
▁mad	-3044
ສີ	-3045
▁ယ	-3046
▁seen	-3047
▁ວ	-3048
▁wasn	-3049
▁kanya	-3050
ើល	-3051
メリカ	-3052
▁unang	-3053
ើញ	-3054
ល្ប	-3055
ister	-3056
▁att	-3057
လိမ့်	-3058
▁ຂອງທ່ານ	-3059
reen	-3060
リア	-3061
▁use	-3062
ຫຼື	-3063
まだ	-3064
dy	-3065
ដំបូង	-3066
ຽບ	-3067
▁prod	-3068
▁getting	-3069
▁mor	-3070
နား	-3071
ពិសេស	-3072
လိ	-3073
前に	-3074
မ္ပ	-3075
ဏ်	-3076
▁hour	-3077
အခါ	-3078
ပွား	-3079
ສິນ	-3080
leep	-3081
▁Apple	-3082
▁どう	-3083
▁ທັງ	-3084
သတ်	-3085
မ္ပဏီ	-3086
ចាំ	-3087
▁wanna	-3088
របស់គាត់	-3089
အာ	-3090
▁ano	-3091
erm	-3092
agamit	-3093
ຍິງ	-3094
▁quest	-3095
▁sar	-3096
▁Le	-3097
ປະມານ	-3098
လိုင်း	-3099
ដែលបាន	-3100
ບານ	-3101
▁#	-3102
မော်	-3103
▁rin	-3104
orld	-3105
▁son	-3106
▁ອິດ	-3107
រយៈពេល	-3108
▁私は	-3109
ສະແດງ	-3110
ចូលរួម	-3111
▁But	-3112
▁ပို	-3113
ents	-3114
▁စာ	-3115
▁pay	-3116
iel	-3117
ried	-3118
ング	-3119
တိုး	-3120
▁pagl	-3121
何か	-3122
実際	-3123
▁មាន	-3124
ឆ្ល	-3125
လွ	-3126
ុស	-3127
ຂາຍ	-3128
uwag	-3129
oob	-3130
ມີຄວາມ	-3131
▁matemat	-3132
အရာ	-3133
コン	-3134
▁pare	-3135
As	-3136
ready	-3137
始め	-3138
▁あなた	-3139
▁called	-3140
▁maging	-3141
နယ်	-3142
ຄອນ	-3143
▁also	-3144
▁Dios	-3145
▁တရုတ်	-3146
ເຮັດໃຫ້	-3147
ຫນີ	-3148
▁ជា	-3149
▁Windows	-3150
ແນວ	-3151
▁spe	-3152
自分の	-3153
ថ្ងៃទី	-3154
方法	-3155
なん	-3156
Get	-3157
ရိယာ	-3158
▁ບັນ	-3159
ចុះ	-3160
ican	-3161
ခန်း	-3162
▁Do	-3163
良い	-3164
ဖြစ်ပါတယ်။	-3165
ステ	-3166
ចេញ	-3167
ອົງ	-3168
ិជ្ជ	-3169
ៀង	-3170
▁John	-3171
▁ຫຼາຍ	-3172
ush	-3173
သေ	-3174
ភិបាល	-3175
ាណិជ្ជ	-3176
កណ្តាល	-3177
▁ind	-3178
អាជីវកម្ម	-3179
ມະ	-3180
▁bahay	-3181
重要	-3182
អន្តរជាតិ	-3183
អាហារ	-3184
ដៃ	-3185
▁ຫລ	-3186
▁ໍາ	-3187
▁Bar	-3188
akita	-3189
ahon	-3190
ka	-3191
▁ឬ	-3192
ហ្គ	-3193
iling	-3194
អារ	-3195
ຈີນ	-3196
▁mind	-3197
ស៊	-3198
ພາຍ	-3199
▁pak	-3200
បន្ត	-3201
▁ເຄ	-3202
▁ရှိ	-3203
ショ	-3204
Ano	-3205
ព្យ	-3206
ທີ່ທ່ານ	-3207
▁kailangan	-3208
ness	-3209
အားလုံး	-3210
ဖြင့်	-3211
ທັງຫມົດ	-3212
ပိုင်	-3213
でしょうか	-3214
orrow	-3215
vel	-3216
24	-3217
ຕ້	-3218
▁―	-3219
ideo	-3220
រង្វ	-3221
គ្រប់គ្រ	-3222
▁Dr	-3223
အကြောင်း	-3224
ပူ	-3225
agan	-3226
ချင်	-3227
▁အတွက်	-3228
ခင်	-3229
Kung	-3230
គោលពីរ	-3231
တိုက်	-3232
ရှား	-3233
ပါသည်။	-3234
its	-3235
やって	-3236
えば	-3237
とき	-3238
ភ្ញៀវ	-3239
,"	-3240
តើ	-3241
လိုအပ်	-3242
ဆီ	-3243
▁heard	-3244
ですが	-3245
ពាណិជ្ជ	-3246
らの	-3247
▁Android	-3248
▁pass	-3249
យន្តហោះ	-3250
▁already	-3251
ៀប	-3252
မေရိ	-3253
▁pal	-3254
ura	-3255
aas	-3256
▁nice	-3257
នុស្ស	-3258
အဝ	-3259
▁Intern	-3260
ရွယ်	-3261
▁yourself	-3262
ပင်	-3263
▁col	-3264
いく	-3265
For	-3266
uth	-3267
uri	-3268
出来	-3269
わか	-3270
▁days	-3271
ley	-3272
ើប	-3273
រង្វាន់	-3274
ថ្ល	-3275
att	-3276
▁ent	-3277
かもしれ	-3278
ជាច្រើន	-3279
ください	-3280
ສົມ	-3281
by	-3282
unta	-3283
りません	-3284
ຄືນ	-3285
အချိန်	-3286
ko	-3287
ກ່ອນ	-3288
Ch	-3289
ບໍລິການ	-3290
▁ខែ	-3291
だろう	-3292
▁hanggang	-3293
ណី	-3294
ເອງ	-3295
အလုပ်	-3296
ພຣະ	-3297
ប្រធាន	-3298
ក្ខ	-3299
こんな	-3300
にお	-3301
▁これ	-3302
သွယ်	-3303
▁ຮັບ	-3304
他の	-3305
ams	-3306
ဖြတ်	-3307
កន្លែង	-3308
▁woman	-3309
ific	-3310
ໂທ	-3311
ເພດ	-3312
let	-3313
work	-3314
မှုကို	-3315
ລະບົບ	-3316
ບົດ	-3317
▁took	-3318
နော်တို့	-3319
▁លោក	-3320
▁Sc	-3321
orth	-3322
ငျသညျ	-3323
られる	-3324
សុ	-3325
▁ຫາ	-3326
ຸ້ນ	-3327
တီး	-3328
彼女は	-3329
ပြည်	-3330
▁CO	-3331
生き	-3332
▁Ser	-3333
とう	-3334
▁ဂ	-3335
amat	-3336
▁Con	-3337
▁trans	-3338
私達	-3339
ឯក	-3340
人は	-3341
ience	-3342
▁word	-3343
သပ်	-3344
リス	-3345
▁ຊີ	-3346
ုပ်တို့	-3347
▁war	-3348
ឺរ៉ុប	-3349
ared	-3350
ເດັກ	-3351
ではありません	-3352
មនុស្ស	-3353
ទិស	-3354
▁Come	-3355
▁baby	-3356
អូ	-3357
ansa	-3358
▁ipin	-3359
စပ်	-3360
彼らは	-3361
▁knew	-3362
▁ဒ	-3363
▁kum	-3364
▁idea	-3365
▁month	-3366
កល	-3367
▁dad	-3368
နီ	-3369
かに	-3370
▁Fl	-3371
▁မှာ	-3372
ឆ្	-3373
1,	-3374
ឌី	-3375
សម្រាប់ការ	-3376
▁ລັດ	-3377
とも	-3378
▁prot	-3379
▁គឺជា	-3380
Maybe	-3381
▁fine	-3382
▁Mac	-3383
Because	-3384
មានការ	-3385
ဘော	-3386
ところ	-3387
ເມື່ອ	-3388
▁ພວກເຮົາ	-3389
▁es	-3390
▁Let	-3391
▁They	-3392
▁used	-3393
របស់ពួកគេ	-3394
▁今	-3395
▁ev	-3396
そんな	-3397
▁ph	-3398
皆さん	-3399
less	-3400
aring	-3401
▁wife	-3402
▁gotta	-3403
▁Man	-3404
なのです	-3405
科学	-3406
ាគម	-3407
inc	-3408
常に	-3409
အမြ	-3410
igh	-3411
ងារ	-3412
▁ရေ	-3413
ຈັກ	-3414
ugar	-3415
ທໍາອິດ	-3416
ငယ်	-3417
ယ့်	-3418
ກາຍ	-3419
▁Be	-3420
របស់ខ្លួន	-3421
ដែរ	-3422
▁tak	-3423
▁This	-3424
▁mang	-3425
▁move	-3426
▁second	-3427
ほど	-3428
ပါး	-3429
စျေး	-3430
amah	-3431
ense	-3432
▁2013	-3433
新しい	-3434
ters	-3435
▁Yes	-3436
▁ຍັງ	-3437
ライ	-3438
ute	-3439
ပေါ့	-3440
ក្ល	-3441
ແມ່	-3442
unod	-3443
ကစား	-3444
ចាប់ផ្តើម	-3445
▁few	-3446
ូត	-3447
ロー	-3448
វត្ថ	-3449
100	-3450
ສາດ	-3451
မ့်	-3452
raz	-3453
ではなく	-3454
▁brother	-3455
▁60	-3456
▁tulad	-3457
ួត	-3458
ឃើញ	-3459
တီ	-3460
しく	-3461
ສະຫະລັດ	-3462
មើល	-3463
に対	-3464
にある	-3465
ຂ້າພະເຈົ້າ	-3466
▁Pag	-3467
အောက်	-3468
▁ginawa	-3469
ージ	-3470
ထဲမှာ	-3471
社会	-3472
しない	-3473
▁Car	-3474
5.	-3475
វាក	-3476
angga	-3477
ဖော်	-3478
ពេលដែល	-3479
▁sub	-3480
▁pos	-3481
ឡើងវិញ	-3482
បច្ច	-3483
▁nga	-3484
ຂອງການ	-3485
▁ແລ້ວ	-3486
ສັນ	-3487
▁ນາ	-3488
▁Ind	-3489
▁Ed	-3490
ລະດັບ	-3491
▁ທີ	-3492
ំពោះ	-3493
▁ဗ	-3494
nan	-3495
ຄວນ	-3496
▁တစ်ခု	-3497
ពីការ	-3498
▁ເຂົ້າ	-3499
ulong	-3500
ကြာ	-3501
▁nila	-3502
▁sol	-3503
▁walk	-3504
ので	-3505
ເກມ	-3506
▁shit	-3507
ctor	-3508
ຈິງ	-3509
រូប	-3510
▁map	-3511
▁២០	-3512
ອັນ	-3513
កាល	-3514
ទស្ស	-3515
တမ်း	-3516
သွေး	-3517
ຕະພັນ	-3518
រំ	-3519
ကြောင့်	-3520
គ្រប់គ្រង	-3521
ໄລຍະ	-3522
rew	-3523
គូ	-3524
ាក់ទ	-3525
ໂຮງ	-3526
Go	-3527
ames	-3528
esus	-3529
▁fil	-3530
ហើរ	-3531
AS	-3532
ຜະລິດຕະພັນ	-3533
ລັດຖະ	-3534
▁dapat	-3535
ulo	-3536
ីឡ	-3537
ເວົ້າ	-3538
ເກີດ	-3539
▁ဘယ်	-3540
23	-3541
ញ្ជ	-3542
ဘက်	-3543
အတူ	-3544
អភិ	-3545
សា	-3546
ប៉ុន្ត	-3547
▁Ph	-3548
なければ	-3549
៉ា	-3550
ຕົນ	-3551
ສຽງ	-3552
してる	-3553
ຫົວ	-3554
ព្រឹ	-3555
▁bum	-3556
▁ທາງ	-3557
OU	-3558
ちゃ	-3559
▁စိတ်	-3560
▁199	-3561
▁bin	-3562
ក្រោយ	-3563
▁higit	-3564
▁maybe	-3565
ຊອກ	-3566
ອາຍຸ	-3567
ພື້ນ	-3568
▁different	-3569
sp	-3570
▁sap	-3571
話を	-3572
nce	-3573
ມື້	-3574
▁wouldn	-3575
理解	-3576
េខ	-3577
បណ្ត	-3578
ງການ	-3579
▁sit	-3580
ကျွန်တော်တို့	-3581
▁open	-3582
▁rest	-3583
apt	-3584
▁ດີ	-3585
▁bring	-3586
70	-3587
ເຂດ	-3588
လင်း	-3589
▁pagkatapos	-3590
▁Inst	-3591
▁whole	-3592
ដំណើរការ	-3593
ចំពោះ	-3594
ລົດ	-3595
▁phone	-3596
技術	-3597
ວິທະ	-3598
▁一	-3599
ジョ	-3600
▁dito	-3601
AR	-3602
▁そう	-3603
akas	-3604
▁import	-3605
らしい	-3606
ធ្វើឱ្យ	-3607
ada	-3608
ាល័យ	-3609
ພົບ	-3610
ហោះហើរ	-3611
▁killed	-3612
ることが	-3613
ihan	-3614
ខ្	-3615
▁sk	-3616
outh	-3617
onight	-3618
ພຽງແຕ່	-3619
ube	-3620
ເສດ	-3621
aaral	-3622
ram	-3623
▁ຕ້ອງ	-3624
ទិសដៅ	-3625
▁pretty	-3626
បដោយ	-3627
ဘူး။	-3628
သူများ	-3629
大きな	-3630
ິ້ນ	-3631
ここに	-3632
អង្គ	-3633
▁pagp	-3634
もっと	-3635
ちょ	-3636
ありが	-3637
នោះ	-3638
▁beaut	-3639
好き	-3640
New	-3641
ໄຂ	-3642
កម្	-3643
▁1.	-3644
▁system	-3645
多くの	-3646
iversity	-3647
いや	-3648
ដូចជា	-3649
vice	-3650
▁add	-3651
ရက်	-3652
▁contr	-3653
ement	-3654
វិស័យទេសចរណ៍	-3655
▁ບໍ	-3656
အပိုင်း	-3657
▁Travel	-3658
အကျ	-3659
▁inst	-3660
ဖက်	-3661
အတွင်း	-3662
ータ	-3663
▁lal	-3664
▁ဘာ	-3665
ဆောင်မှု	-3666
ເດີ	-3667
ွမ်း	-3668
ony	-3669
ុយ	-3670
▁listen	-3671
ຊື້	-3672
▁ကျွန်တော်တို့	-3673
sw	-3674
ໂມງ	-3675
▁pum	-3676
▁နဲ့	-3677
▁大	-3678
မေး	-3679
ph	-3680
ກອງ	-3681
信じ	-3682
すると	-3683
isyon	-3684
意味	-3685
Every	-3686
▁reg	-3687
45	-3688
▁drink	-3689
မေရိကန်	-3690
ulang	-3691
အဖွဲ့	-3692
▁buong	-3693
ຸງ	-3694
▁seem	-3695
ple	-3696
えた	-3697
本当に	-3698
▁water	-3699
ប្រកបដោយ	-3700
isa	-3701
လျှင်	-3702
ຖ້າທ່ານ	-3703
受け	-3704
▁យើង	-3705
ພະຍ	-3706
fe	-3707
ps	-3708
ling	-3709
တွေက	-3710
考えて	-3711
គោលដៅ	-3712
ຫວ	-3713
ဗျ	-3714
ເຊື່ອ	-3715
အားဖြင့်	-3716
ិយ	-3717
▁yet	-3718
けど	-3719
ສະຖານ	-3720
▁တွင်	-3721
▁inter	-3722
ahin	-3723
▁ສິ່ງ	-3724
ဖြေ	-3725
សកល	-3726
▁mundo	-3727
echn	-3728
ງ່າຍ	-3729
ຈຸບັນ	-3730
ບໍດີ	-3731
▁yes	-3732
ドル	-3733
IS	-3734
ຂອງພວກເຮົາ	-3735
ဇာ	-3736
ធម	-3737
ໄດ້ຮັບການ	-3738
ເພາະ	-3739
▁mod	-3740
yes	-3741
▁conf	-3742
យោ	-3743
ខ្ស	-3744
とって	-3745
ではない	-3746
စနစ်	-3747
によって	-3748
▁stand	-3749
▁နောက်	-3750
រុ	-3751
ຂື້ນ	-3752
alaman	-3753
ແຕກ	-3754
ae	-3755
バー	-3756
ផ្លាស់	-3757
いません	-3758
anggap	-3759
▁ສຸດ	-3760
ປະກອບ	-3761
ແລ	-3762
▁friends	-3763
▁book	-3764
ន្ទ	-3765
すること	-3766
အချက်	-3767
Mr	-3768
ane	-3769
▁ချ	-3770
ណា	-3771
េក	-3772
ized	-3773
など	-3774
▁Or	-3775
ction	-3776
▁ibang	-3777
したい	-3778
acebook	-3779
គួរ	-3780
▁My	-3781
▁uh	-3782
ວິທະຍາ	-3783
ឌ្	-3784
ဆိုတာ	-3785
▁最	-3786
ນີ້ແມ່ນ	-3787
▁fight	-3788
▁point	-3789
irt	-3790
pert	-3791
▁ပုံ	-3792
▁News	-3793
▁says	-3794
បញ្ចូល	-3795
ອຸ	-3796
သေး	-3797
ລະກິດ	-3798
ຜິດ	-3799
າທິ	-3800
▁haven	-3801
▁without	-3802
▁tom	-3803
ນາງ	-3804
ក៏	-3805
▁morning	-3806
ສາຍ	-3807
ទាក់ទ	-3808
▁ដ	-3809
ປະທານ	-3810
မို	-3811
すべて	-3812
6.	-3813
ອາຫານ	-3814
▁sleep	-3815
情報	-3816
▁myself	-3817
ទុក	-3818
▁Res	-3819
▁ရဲ့	-3820
ខ្ពស់	-3821
アメリカ	-3822
កំណត់	-3823
▁panahon	-3824
▁ມື້	-3825
ិភាព	-3826
ໂນ	-3827
彼の	-3828
▁Col	-3829
ឌ្ឍ	-3830
iful	-3831
urop	-3832
▁die	-3833
▁♪	-3834
ຊາຊົນ	-3835
スの	-3836
▁ອອກ	-3837
ကောက်	-3838
▁ເວົ້າ	-3839
ພັດ	-3840
ប៉ុន្តែ	-3841
ຂຽນ	-3842
တယ်၊	-3843
何を	-3844
gin	-3845
ယို	-3846
aran	-3847
▁ဒါဟာ	-3848
ခါ	-3849
▁Well	-3850
なが	-3851
▁ພາ	-3852
▁mil	-3853
yl	-3854
ខែ	-3855
ປົກ	-3856
ON	-3857
▁ສາ	-3858
どんな	-3859
▁mags	-3860
フィ	-3861
があ	-3862
▁Christ	-3863
asy	-3864
atag	-3865
▁saying	-3866
▁အထ	-3867
ន្ត្រី	-3868
វឌ្ឍ	-3869
ပါဝင်	-3870
▁2014	-3871
ただ	-3872
▁su	-3873
▁det	-3874
ဂျင်	-3875
ilala	-3876
▁World	-3877
▁ສາມາດ	-3878
unan	-3879
▁gusto	-3880
ពាណិជ្ជកម្ម	-3881
lex	-3882
ude	-3883
ကုမ္ပဏီ	-3884
▁important	-3885
9.	-3886
aint	-3887
▁high	-3888
ရိုး	-3889
ពល	-3890
ីស	-3891
▁dum	-3892
ຄຸນ	-3893
ເຊັ່ນ	-3894
တွေဟာ	-3895
ures	-3896
▁ສະຫ	-3897
ညွှ	-3898
awag	-3899
ありがとう	-3900
ເຈ	-3901
မံ	-3902
ップ	-3903
たら	-3904
ကောင်းဆုံး	-3905
ហ្វ	-3906
ແປງ	-3907
erest	-3908
関係	-3909
ကူး	-3910
▁ပြန်	-3911
ឿង	-3912
ကွက်	-3913
22	-3914
ying	-3915
▁ເນ	-3916
▁nin	-3917
ສິ່ງທີ່	-3918
ထုတ်ကုန်	-3919
ວາງ	-3920
ခွဲ	-3921
ິ່ນ	-3922
ໂອ	-3923
マン	-3924
ove	-3925
ເຮົ	-3926
▁Hack	-3927
▁change	-3928
私たちの	-3929
ຈໍານວນ	-3930
ເຫດ	-3931
ស្ល	-3932
ត្ប	-3933
▁watch	-3934
ប្រព័ន្ធ	-3935
တံ	-3936
▁fore	-3937
amn	-3938
▁eat	-3939
ប្តូរ	-3940
▁stud	-3941
ល្អបំផុត	-3942
ោធ	-3943
▁guess	-3944
▁១	-3945
ເອີ	-3946
အုပ်	-3947
ບັນດາ	-3948
▁ដែលជា	-3949
ene	-3950
ធម៌	-3951
လောက်	-3952
ໃຕ້	-3953
rael	-3954
▁Mag	-3955
言う	-3956
စင်	-3957
អឺរ៉ុប	-3958
▁tonight	-3959
ກາງ	-3960
▁sign	-3961
ပို့	-3962
▁ປະເທດ	-3963
ましょう	-3964
▁သို့မဟုတ်	-3965
ape	-3966
ມັດ	-3967
angk	-3968
asabi	-3969
▁kom	-3970
ຊອກຫາ	-3971
plet	-3972
▁alone	-3973
onom	-3974
ဖန်	-3975
▁mus	-3976
များ၏	-3977
ger	-3978
ាច់	-3979
Good	-3980
▁ເອ	-3981
NA	-3982
ology	-3983
▁ပေး	-3984
ison	-3985
ipag	-3986
▁each	-3987
ត្តិការណ៍	-3988
の一	-3989
▁hope	-3990
cept	-3991
umang	-3992
យដ្ឋាន	-3993
写真	-3994
ដា	-3995
រៀ	-3996
▁prom	-3997
▁such	-3998
ဥပ	-3999
ros	-4000
▁spec	-4001
▁matematika	-4002
aster	-4003
▁IQ	-4004
where	-4005
မြှ	-4006
▁Go	-4007
າທິບໍດີ	-4008
▁kaniya	-4009
▁ប	-4010
အနေ	-4011
orya	-4012
▁May	-4013
ໄພ	-4014
ធំ	-4015
への	-4016
よく	-4017
ផ្សាយ	-4018
▁fact	-4019
ကိ	-4020
ထမ	-4021
ឈ្មោះ	-4022
oke	-4023
▁bas	-4024
▁Just	-4025
つまり	-4026
▁ဝ	-4027
▁ລາວ	-4028
▁dire	-4029
地球	-4030
ーの	-4031
▁見	-4032
ving	-4033
ີ່	-4034
以上	-4035
▁kayo	-4036
▁heart	-4037
▁kids	-4038
▁Israel	-4039
ရရှိ	-4040
と思います	-4041
▁business	-4042
မြင့်	-4043
める	-4044
alth	-4045
▁wants	-4046
ាជិក	-4047
riend	-4048
ປະກອນ	-4049
Please	-4050
▁ລະ	-4051
ibigay	-4052
素晴	-4053
▁lup	-4054
စကား	-4055
▁check	-4056
ແຕກຕ່າງ	-4057
illion	-4058
▁អ៊ី	-4059
alita	-4060
▁De	-4061
▁lik	-4062
▁kaya	-4063
wit	-4064
ប្រឹក	-4065
ニュー	-4066
▁form	-4067
▁Why	-4068
ယောက်	-4069
គំ	-4070
▁gawin	-4071
ហា	-4072
ility	-4073
▁နည်း	-4074
▁minutes	-4075
ູດ	-4076
▁ຂ້ອຍ	-4077
ဓိ	-4078
AL	-4079
チャ	-4080
▁El	-4081
▁kapag	-4082
IC	-4083
▁Cr	-4084
▁သိ	-4085
▁akong	-4086
▁while	-4087
-19	-4088
aal	-4089
▁そして	-4090
拍手	-4091
ired	-4092
▁happy	-4093
これが	-4094
ຕະຫຼ	-4095
▁lugar	-4096
វត្ត	-4097
▁ဤ	-4098
ftware	-4099
▁yeah	-4100
ays	-4101
▁def	-4102
rap	-4103
imula	-4104
ាភិបាល	-4105
▁tomorrow	-4106
ແຮງ	-4107
တရား	-4108
ົ່ວໂມງ	-4109
မရှိ	-4110
ouble	-4111
2,	-4112
▁online	-4113
ຫຼາຍກວ່າ	-4114
我々は	-4115
▁ត្រូវបាន	-4116
ជូន	-4117
にとって	-4118
ຸລະກິດ	-4119
တိုင်	-4120
▁matter	-4121
ើនឡើង	-4122
リン	-4123
▁lear	-4124
ຫຼັງຈາກ	-4125
▁expl	-4126
ric	-4127
35	-4128
ax	-4129
bably	-4130
たく	-4131
▁Gu	-4132
vers	-4133
ວກັນ	-4134
ကွယ်	-4135
IT	-4136
លេខ	-4137
▁cons	-4138
▁door	-4139
▁ဟ	-4140
ព្រឹត្តិការណ៍	-4141
▁£	-4142
▁Mic	-4143
မယ့်	-4144
ຂໍ	-4145
press	-4146
ခဲ့ကြ	-4147
▁hold	-4148
ນໍາໃຊ້	-4149
▁leg	-4150
▁ready	-4151
者の	-4152
生物	-4153
osp	-4154
apit	-4155
▁natin	-4156
អភិវឌ្ឍ	-4157
ຕອບ	-4158
ເປ	-4159
្រ្ត	-4160
▁unt	-4161
▁Not	-4162
ungan	-4163
▁500	-4164
-20	-4165
ືອບ	-4166
Or	-4167
ທ້າຍ	-4168
▁lost	-4169
▁couldn	-4170
avid	-4171
▁Min	-4172
▁Am	-4173
が必要	-4174
▁face	-4175
そこで	-4176
▁gun	-4177
ាំទ្រ	-4178
တွေနဲ့	-4179
ထောင်	-4180
နေကြ	-4181
ဓာတ်	-4182
▁Sk	-4183
▁both	-4184
▁beh	-4185
fr	-4186
ole	-4187
ဆာ	-4188
လွန်	-4189
▁Em	-4190
▁TH	-4191
ipp	-4192
ຕັດ	-4193
▁story	-4194
ース	-4195
នេះ។	-4196
អ៊	-4197
aly	-4198
ាស៊ី	-4199
ဲ့သို့	-4200
▁bagong	-4201
ແຫ່ງ	-4202
ချို့	-4203
ເລີ່ມຕົ້ນ	-4204
gy	-4205
▁bansa	-4206
ផង	-4207
▁stuff	-4208
▁once	-4209
oud	-4210
データ	-4211
▁ທຸກ	-4212
ンド	-4213
bsite	-4214
ຽວກັນ	-4215
▁light	-4216
ໄຊ	-4217
▁bro	-4218
td	-4219
ファ	-4220
inal	-4221
ution	-4222
▁problema	-4223
မယ်။	-4224
ということです	-4225
နျ	-4226
iyos	-4227
▁noong	-4228
▁gone	-4229
ຕ່າງໆ	-4230
enn	-4231
ision	-4232
ຜ່ານມາ	-4233
la	-4234
される	-4235
▁sing	-4236
▁thinking	-4237
理由	-4238
ភ្ល	-4239
xy	-4240
និរ	-4241
ရှာ	-4242
ッド	-4243
▁kasama	-4244
▁ret	-4245
▁sus	-4246
らい	-4247
▁beautiful	-4248
တို	-4249
▁ac	-4250
One	-4251
គាំទ្រ	-4252
▁worry	-4253
ប្រជុំ	-4254
▁នឹង	-4255
ដូរ	-4256
21	-4257
່ອຍ	-4258
▁rep	-4259
သည့်	-4260
くな	-4261
arap	-4262
ປະຊຸມ	-4263
ໄດ້ຖືກ	-4264
▁young	-4265
▁ຈີນ	-4266
28	-4267
▁data	-4268
すぐ	-4269
少し	-4270
aps	-4271
etwork	-4272
ອາດຈະ	-4273
ນີ	-4274
ollow	-4275
上げ	-4276
Mag	-4277
els	-4278
▁ຂໍ້	-4279
េទ	-4280
និយាយថា	-4281
ប្រកាស	-4282
ໂຕ	-4283
ention	-4284
່ວາ	-4285
7.	-4286
▁soon	-4287
▁Har	-4288
▁break	-4289
che	-4290
90	-4291
ral	-4292
▁kanila	-4293
Here	-4294
ផ្លាស់ប្តូរ	-4295
▁La	-4296
ium	-4297
ຂ່າວ	-4298
ald	-4299
ownload	-4300
គិត	-4301
ຄັນ	-4302
ney	-4303
家族	-4304
ots	-4305
▁Se	-4306
▁Ge	-4307
時に	-4308
បដ	-4309
されて	-4310
စမ်း	-4311
▁since	-4312
era	-4313
បោះ	-4314
なんだ	-4315
▁cry	-4316
▁inc	-4317
・・	-4318
ကြိုး	-4319
ធ្វើការ	-4320
fect	-4321
▁site	-4322
oe	-4323
တောင်	-4324
26	-4325
ello	-4326
ເມລິ	-4327
▁ຂຶ້ນ	-4328
▁number	-4329
ລາຄາ	-4330
ផងដែរ	-4331
ustom	-4332
go	-4333
ຕໍ່ໄປ	-4334
▁air	-4335
iging	-4336
uter	-4337
ວາ	-4338
▁blood	-4339
▁Jesus	-4340
みんな	-4341
▁working	-4342
ប្រតិបត្តិការ	-4343
▁char	-4344
រដ្ឋាភិបាល	-4345
ーン	-4346
ະລັງ	-4347
▁1,	-4348
ពិសោធ	-4349
▁ក្រុមហ៊ុន	-4350
あなたは	-4351
▁笑	-4352
ats	-4353
ພັດທະນາ	-4354
ປັບ	-4355
yari	-4356
iwan	-4357
きます	-4358
លក្ខ	-4359
ことに	-4360
ແນວໃດ	-4361
▁hurt	-4362
ဇိုင်း	-4363
わけ	-4364
▁paraan	-4365
ບາຍ	-4366
▁Gl	-4367
▁makak	-4368
ငြ	-4369
ဒီယို	-4370
▁read	-4371
ကိုင်	-4372
▁alam	-4373
cle	-4374
ips	-4375
លេង	-4376
▁maaari	-4377
つか	-4378
လေ့	-4379
▁pagkak	-4380
ការធ្វើដំណើរ	-4381
យាន	-4382
adong	-4383
ジャ	-4384
oice	-4385
အလက်	-4386
▁power	-4387
ຫ້ອງ	-4388
ແລະການ	-4389
ធ្ល	-4390
▁ອົງ	-4391
ထိုး	-4392
နှိပ်	-4393
▁later	-4394
uo	-4395
▁pagb	-4396
វាកម្ម	-4397
丈夫	-4398
ET	-4399
ທົດ	-4400
ជម្រើសគោលពីរ	-4401
▁University	-4402
To	-4403
ရှု	-4404
လပ်	-4405
ຄົວ	-4406
ចុង	-4407
ណ្ណ	-4408
ouch	-4409
▁interest	-4410
言葉	-4411
▁anyone	-4412
posed	-4413
▁bar	-4414
plic	-4415
になります	-4416
ដឹង	-4417
alo	-4418
りの	-4419
▁nasa	-4420
ສັບ	-4421
band	-4422
▁law	-4423
နေတဲ့	-4424
အရည်	-4425
▁Camb	-4426
ຈຸດ	-4427
អប់	-4428
ခဲ့တယ်။	-4429
အဲ	-4430
▁ດັ່ງ	-4431
▁ម៉	-4432
▁pangalan	-4433
da	-4434
រស	-4435
ន្តរភាព	-4436
▁Get	-4437
ထောက်	-4438
កើនឡើង	-4439
▁Europ	-4440
▁di	-4441
ុល្ល	-4442
ann	-4443
ailangan	-4444
Tur	-4445
素晴らしい	-4446
▁ຟ	-4447
だよ	-4448
ບ່ອນ	-4449
細胞	-4450
ikita	-4451
Laughter	-4452
On	-4453
いった	-4454
US	-4455
Some	-4456
▁တစ်ဦး	-4457
▁body	-4458
▁ຊຶ່ງ	-4459
▁ສະຫະລັດ	-4460
ព្វ	-4461
ukto	-4462
ការព	-4463
▁deal	-4464
▁bo	-4465
ກ້	-4466
▁Cent	-4467
▁လေ	-4468
▁case	-4469
▁having	-4470
ົ່ານີ້	-4471
▁asked	-4472
ists	-4473
ရွက်	-4474
▁sound	-4475
▁ant	-4476
abas	-4477
និរន្តរភាព	-4478
▁far	-4479
▁anumang	-4480
ທີ່ດີທີ່ສຸດ	-4481
▁ໂລ	-4482
ុល្លារ	-4483
razy	-4484
小さ	-4485
▁pagg	-4486
のに	-4487
Thank	-4488
▁pick	-4489
ັງຄ	-4490
ရိုက်	-4491
▁video	-4492
あなたの	-4493
▁until	-4494
RE	-4495
があり	-4496
▁account	-4497
ខ្សែ	-4498
存在	-4499
▁ထို	-4500
ကြည့်	-4501
အသွေး	-4502
ເມລິກາ	-4503
weet	-4504
▁mess	-4505
ခေါ်	-4506
▁ទ	-4507
ယား	-4508
ပိုး	-4509
▁Hey	-4510
▁test	-4511
それが	-4512
មន្ត្រី	-4513
27	-4514
▁York	-4515
ခံစား	-4516
ding	-4517
agram	-4518
ទេសចរ	-4519
ကြောင့်	-4520
ຫນາດ	-4521
ោត	-4522
▁gave	-4523
アイ	-4524
にいる	-4525
▁hands	-4526
ដៃគូ	-4527
に関	-4528
lin	-4529
ព្រះ	-4530
ប្រកួត	-4531
ນ້ໍາ	-4532
တို့ကို	-4533
▁Ltd	-4534
▁win	-4535
したら	-4536
▁times	-4537
▁late	-4538
▁tayo	-4539
PS	-4540
side	-4541
ထွက်	-4542
とな	-4543
វប្ប	-4544
agka	-4545
artment	-4546
ប្រឹក្សា	-4547
▁အဲဒီ	-4548
▁International	-4549
事を	-4550
ួញដូរ	-4551
▁ព	-4552
Mar	-4553
▁game	-4554
វ៉	-4555
AC	-4556
ុណ	-4557
ອ່ານ	-4558
▁ຮູ້	-4559
▁true	-4560
ពិនិត	-4561
ពិនិត្យ	-4562
今日	-4563
သတင်း	-4564
▁私	-4565
reaking	-4566
បទពិសោធ	-4567
▁nagp	-4568
▁誰	-4569
▁lim	-4570
シャ	-4571
▁its	-4572
ແຜນ	-4573
ကြေး	-4574
▁ခု	-4575
99	-4576
られた	-4577
▁ຫລື	-4578
▁ລ້ານ	-4579
ကဲ့သို့	-4580
ងាយ	-4581
▁ເບ	-4582
ຈ່າຍ	-4583
8.	-4584
ខ្លាំង	-4585
ider	-4586
▁Che	-4587
more	-4588
den	-4589
reet	-4590
ပန်း	-4591
ပွားရေး	-4592
ដូវ	-4593
ပု	-4594
yal	-4595
▁post	-4596
▁question	-4597
▁poss	-4598
▁ເມືອງ	-4599
ခဲ့သည်။	-4600
ural	-4601
ລີ	-4602
▁There	-4603
▁build	-4604
とか	-4605
▁ຕາມ	-4606
さら	-4607
君は	-4608
ໄວ້	-4609
を見て	-4610
្ត្រ	-4611
してくれ	-4612
▁များအတွက်	-4613
ដឹកនាំ	-4614
ift	-4615
ရို	-4616
uli	-4617
ជាជន	-4618
alagang	-4619
arth	-4620
លាន	-4621
កោះ	-4622
▁ລາ	-4623
News	-4624
ມີການ	-4625
▁ຄື	-4626
のような	-4627
一緒	-4628
非常に	-4629
▁human	-4630
ប្រស	-4631
▁nito	-4632
ທຸລະກິດ	-4633
▁bed	-4634
▁Par	-4635
▁ພັນ	-4636
▁hin	-4637
▁means	-4638
hang	-4639
▁ດ້ວຍ	-4640
わり	-4641
အခြေ	-4642
ັມ	-4643
နို	-4644
▁huh	-4645
▁sak	-4646
私たちが	-4647
▁80	-4648
▁ob	-4649
မြန်	-4650
ここで	-4651
ເຮືອນ	-4652
えます	-4653
宇宙	-4654
ပံ့	-4655
Have	-4656
▁bayan	-4657
atic	-4658
နံ	-4659
ones	-4660
▁cop	-4661
▁answ	-4662
ອາທິດ	-4663
Be	-4664
ປະສົບ	-4665
▁kang	-4666
Ex	-4667
ສະພາ	-4668
ဆိပ်	-4669
▁loob	-4670
▁side	-4671
អាកាសយាន	-4672
▁Okay	-4673
行く	-4674
ちょっと	-4675
ဂ္ဂ	-4676
▁Ant	-4677
anong	-4678
ផ្សេងទៀត	-4679
ネット	-4680
ນິ	-4681
ជួញដូរ	-4682
ឈ្មួញ	-4683
វិទ្យាល័យ	-4684
elf	-4685
គុណ	-4686
▁ນວນ	-4687
ither	-4688
ျှ	-4689
ເອກ	-4690
ahanap	-4691
friend	-4692
ကျွန်မ	-4693
កាត់	-4694
▁del	-4695
▁five	-4696
BA	-4697
▁23	-4698
សមាជិក	-4699
かもしれません	-4700
っていた	-4701
▁ມະ	-4702
言った	-4703
ບໍ່ໄດ້	-4704
▁website	-4705
▁ប៉ុន្តែ	-4706
Sin	-4707
ອະ	-4708
ផ្គ	-4709
▁PC	-4710
▁pun	-4711
▁ဆက်	-4712
Un	-4713
▁wonder	-4714
▁အမျိုး	-4715
▁ໃຈ	-4716
▁nagt	-4717
ថ្លៃ	-4718
のように	-4719
តម្រ	-4720
▁sent	-4721
ibigan	-4722
▁Mc	-4723
wa	-4724
▁私の	-4725
▁ກ່ຽວກັບ	-4726
できない	-4727
▁panan	-4728
eth	-4729
▁ເຄື່ອງ	-4730
▁2022	-4731
oft	-4732
អាកាសយានដ្ឋាន	-4733
សត	-4734
ネル	-4735
▁gamit	-4736
▁សម្រាប់	-4737
វត្ថិភាព	-4738
▁ລົງ	-4739
▁probably	-4740
キャ	-4741
▁នៃ	-4742
ຄົ້ນ	-4743
ផ្ទាល់	-4744
ချက်များ	-4745
ឈម	-4746
တာကို	-4747
▁tool	-4748
▁nagk	-4749
စိတ်အပိုင်း	-4750
▁four	-4751
▁baw	-4752
▁babae	-4753
urg	-4754
たちは	-4755
ဉ်း	-4756
だけで	-4757
▁taong	-4758
ပါလိမ့်	-4759
alim	-4760
▁tat	-4761
▁months	-4762
▁ម	-4763
led	-4764
ities	-4765
ລວມ	-4766
▁28	-4767
ឥណ្ឌ	-4768
▁ကိုယ်	-4769
▁started	-4770
ယျ	-4771
▁est	-4772
យល់	-4773
イル	-4774
結果	-4775
ឈ្មួញកណ្តាល	-4776
▁exact	-4777
▁ດໍາ	-4778
俺は	-4779
ilan	-4780
Any	-4781
Paano	-4782
គណ	-4783
▁ແນ	-4784
oint	-4785
▁Dis	-4786
ຮ້ອງ	-4787
និយោគ	-4788
ວ່າມັນ	-4789
▁children	-4790
▁nan	-4791
atr	-4792
າກາດ	-4793
ကြည့်	-4794
▁គាត់	-4795
វិនិយោគ	-4796
▁naging	-4797
ဖြစ်ပါသည်	-4798
▁Hotel	-4799
▁Facebook	-4800
យុទ្ធ	-4801
ield	-4802
▁progr	-4803
▁inyong	-4804
បទពិសោធន៍	-4805
▁ເມື່ອ	-4806
aro	-4807
▁វា	-4808
ជញ្ជ	-4809
力を	-4810
TC	-4811
ផ្ទះ	-4812
▁Jer	-4813
បញ្	-4814
ភេទ	-4815
ជញ្ជូន	-4816
ដឹកជញ្ជូន	-4817
▁paano	-4818
ခြင်းနှင့်	-4819
agdag	-4820
eter	-4821
Turbo	-4822
វប្បធម៌	-4823
▁စီး	-4824
តំណ	-4825
ឡុង	-4826
しよう	-4827
▁Eng	-4828
▁bahagi	-4829
အစ	-4830
▁၁	-4831
システ	-4832
▁ထုတ်ကုန်	-4833
思い	-4834
ကမ္ဘာ	-4835
▁sabihin	-4836
ີມ	-4837
ຽດ	-4838
fl	-4839
影響	-4840
最初	-4841
▁Are	-4842
ထိန်း	-4843
min	-4844
になった	-4845
▁100%	-4846
ນທາງ	-4847
ជ្រើស	-4848
Home	-4849
システム	-4850
-0	-4851
ised	-4852
▁inside	-4853
ကျော်	-4854
ですか	-4855
ກ່ວາ	-4856
តាមរយៈ	-4857
ដី	-4858
ະລັງງານ	-4859
ជ្ញ	-4860
カー	-4861
▁ຕັ້ງ	-4862
電話	-4863
▁thank	-4864
それを	-4865
▁hours	-4866
▁taking	-4867
ES	-4868
most	-4869
ရုပ်	-4870
ាធិ	-4871
້າວ	-4872
ived	-4873
▁able	-4874
▁マ	-4875
လိမ့်	-4876
usband	-4877
TurboNews	-4878
ាលី	-4879
ມ້	-4880
ဖတ်	-4881
▁pagbab	-4882
ាយជា	-4883
Bakit	-4884
▁death	-4885
よりも	-4886
ငှ	-4887
ប៊	-4888
▁35	-4889
最も	-4890
ຮັກສາ	-4891
GB	-4892
生活	-4893
▁mem	-4894
ンは	-4895
arly	-4896
ជំនាញ	-4897
▁eyes	-4898
ប្រាស់	-4899
者は	-4900
▁ပြော	-4901
▁pagpap	-4902
សាន	-4903
ធីអ	-4904
បញ្ជា	-4905
သင့်	-4906
▁police	-4907
での	-4908
ទំព័រ	-4909
▁ກວ່າ	-4910
ດຽວ	-4911
▁ເຫນີ	-4912
arawan	-4913
cy	-4914
▁knows	-4915
▁Where	-4916
▁crazy	-4917
ນາມ	-4918
ឧប	-4919
スタ	-4920
場合	-4921
ខុស	-4922
ဆောက်	-4923
▁Val	-4924
ុច	-4925
ລັກ	-4926
-3	-4927
▁OK	-4928
▁ຕົວ	-4929
omb	-4930
▁ກະ	-4931
▁ext	-4932
າະ	-4933
▁2.	-4934
▁ain	-4935
ອບຄົວ	-4936
សេវាកម្ម	-4937
▁iyon	-4938
ule	-4939
ຫລື	-4940
▁inil	-4941
head	-4942
ween	-4943
▁Pol	-4944
▁Sam	-4945
なんて	-4946
▁nar	-4947
▁រួម	-4948
အလွန်	-4949
▁nagb	-4950
スを	-4951
▁အင်	-4952
▁သုံး	-4953
▁terr	-4954
▁dream	-4955
ື່ມ	-4956
ິບ	-4957
▁card	-4958
ingnan	-4959
▁David	-4960
▁အောက်	-4961
အခြား	-4962
ຣີ	-4963
ារ្យ	-4964
ຸ່ນ	-4965
▁speak	-4966
すれば	-4967
ron	-4968
ux	-4969
▁90	-4970
みたい	-4971
▁ອີກ	-4972
▁gan	-4973
▁key	-4974
ထဲက	-4975
កាស	-4976
ဖျ	-4977
のが	-4978
ក្រោម	-4979
ຄອງ	-4980
▁chang	-4981
▁sapagka	-4982
者が	-4983
▁making	-4984
မတ်	-4985
▁နှင့်	-4986
▁hit	-4987
▁everyone	-4988
ាការ	-4989
usyon	-4990
▁free	-4991
ွန်လိုင်း	-4992
angan	-4993
▁ຊົ່ວໂມງ	-4994
▁For	-4995
កែ	-4996
raid	-4997
ຂອບ	-4998
ສອບ	-4999
ាញ់	-5000
ຊິກ	-5001
来た	-5002
oun	-5003
▁0.	-5004
▁UN	-5005
▁husband	-5006
:00	-5007
▁2021	-5008
グラ	-5009
စွဲ	-5010
ទិញ	-5011
重要な	-5012
ទ្ធិ	-5013
ဆောင်း	-5014
出す	-5015
ants	-5016
ພັກ	-5017
ンを	-5018
▁Hol	-5019
▁dem	-5020
ຕົກ	-5021
ikal	-5022
တာပါ။	-5023
រើស	-5024
andang	-5025
るか	-5026
▁ລັບການ	-5027
▁Ab	-5028
と思う	-5029
▁26	-5030
・・・	-5031
▁Dad	-5032
▁wala	-5033
TM	-5034
တန်	-5035
▁reason	-5036
ດັ່ງກ່າວ	-5037
បស់	-5038
▁learn	-5039
ពុ	-5040
▁Ste	-5041
▁siyang	-5042
ウェ	-5043
ury	-5044
້ນີ້	-5045
▁Miss	-5046
que	-5047
ພິມ	-5048
▁cut	-5049
អង្គការ	-5050
▁ຖ້າ	-5051
ီဒီယို	-5052
29	-5053
▁အလုပ်	-5054
າລະ	-5055
ထို	-5056
ကမ်း	-5057
အိတ်	-5058
▁ສ່ວນ	-5059
ប្រើប្រាស់	-5060
▁Rob	-5061
▁train	-5062
Tr	-5063
med	-5064
▁supposed	-5065
ូច	-5066
ພາຍໃນ	-5067
わせ	-5068
▁ຮັກ	-5069
ອະນ	-5070
パー	-5071
▁half	-5072
ះព	-5073
ចង់	-5074
▁Play	-5075
ໃບ	-5076
▁On	-5077
▁ເລັດ	-5078
▁ໃນປີ	-5079
លក់	-5080
▁tot	-5081
ຄວ	-5082
ទំនង	-5083
ບັນຊີ	-5084
▁Russ	-5085
▁Diyos	-5086
まず	-5087
ានៅ	-5088
変化	-5089
▁မိ	-5090
view	-5091
alaki	-5092
▁ထုတ်လုပ်	-5093
လိပ်	-5094
現在	-5095
hel	-5096
▁shoot	-5097
▁2023	-5098
▁women	-5099
ပ္	-5100
iec	-5101
▁news	-5102
ក្រុមប្រឹក្សា	-5103
▁resp	-5104
名前	-5105
of	-5106
▁sas	-5107
▁tun	-5108
▁dist	-5109
▁ជាមួយនឹង	-5110
iwala	-5111
ながら	-5112
ជួយ	-5113
ស្ថ	-5114
:3	-5115
ឥត	-5116
ငျး	-5117
ຟ້າ	-5118
後に	-5119
Pag	-5120
ສູນ	-5121
▁file	-5122
ອັດ	-5123
▁follow	-5124
1)	-5125
▁daughter	-5126
を知	-5127
ចិន	-5128
ontr	-5129
ဇူး	-5130
ជារ	-5131
ផ្តល់ជូន	-5132
ແກ້	-5133
▁အခ	-5134
សុវត្ថិភាព	-5135
▁eTurboNews	-5136
anya	-5137
ົນຕີ	-5138
▁~	-5139
▁Pa	-5140
▁exc	-5141
あの	-5142
フォ	-5143
▁dog	-5144
ຮູບແບບ	-5145
သီ	-5146
ဒယ်	-5147
ៀន	-5148
ចាស់	-5149
▁ຖາມ	-5150
通り	-5151
မြို့	-5152
နိုင်ပါတယ်။	-5153
▁aw	-5154
人生	-5155
▁personal	-5156
ສິດ	-5157
▁သည်	-5158
erman	-5159
လုံ	-5160
▁នេះ	-5161
ေါ်လာ	-5162
ອອກແບບ	-5163
ມາດ	-5164
ခွင့်	-5165
▁ref	-5166
ທົບ	-5167
បចំ	-5168
ဆင့်	-5169
ធម្ម	-5170
ဆိုရင်	-5171
▁ເພາະ	-5172
▁tel	-5173
▁kong	-5174
▁land	-5175
តម្រូវ	-5176
▁least	-5177
▁looks	-5178
ເລື່ອງ	-5179
isyo	-5180
▁Ng	-5181
▁pict	-5182
▁ကမ္ဘာ	-5183
yr	-5184
▁cor	-5185
ately	-5186
ປະເພດ	-5187
ior	-5188
syon	-5189
ມັກ	-5190
▁အာ	-5191
▁past	-5192
isit	-5193
្ជាប់	-5194
ຍາດ	-5195
▁Good	-5196
▁Sup	-5197
ម្មណ៍	-5198
្ង	-5199
▁chance	-5200
▁Black	-5201
ອຸປະກອນ	-5202
Wh	-5203
້ໍາ	-5204
であり	-5205
រីករ	-5206
ានឹង	-5207
▁mahusay	-5208
နိ	-5209
人を	-5210
▁hon	-5211
かり	-5212
学校	-5213
▁ya	-5214
▁mur	-5215
▁country	-5216
ຫຼວງ	-5217
▁ທີ່ມີ	-5218
▁Wh	-5219
asok	-5220
រដូវ	-5221
သည့်	-5222
ကျောင်း	-5223
អេ	-5224
fess	-5225
▁លាន	-5226
▁នៅក្នុង	-5227
▁ນະ	-5228
ុទ្រ	-5229
▁cook	-5230
အချက်အလက်	-5231
▁Trading	-5232
က္ခ	-5233
▁bawat	-5234
စက်ရုံ	-5235
▁trust	-5236
経済	-5237
Tell	-5238
lim	-5239
ថត	-5240
cent	-5241
▁soc	-5242
▁21	-5243
isip	-5244
Uh	-5245
បដិស	-5246
ပေါက်	-5247
▁exper	-5248
រដ្ឋអាមេរិក	-5249
័រ	-5250
App	-5251
▁ဇ	-5252
ATA	-5253
ema	-5254
▁Will	-5255
rosoft	-5256
▁afraid	-5257
ket	-5258
▁Who	-5259
年の	-5260
▁ninyo	-5261
igure	-5262
ルー	-5263
ດິນ	-5264
ကွန်	-5265
្ទ	-5266
အခမဲ့	-5267
Ar	-5268
uloy	-5269
ative	-5270
ief	-5271
ມາະ	-5272
▁70	-5273
ຂະນະ	-5274
▁ကုန်	-5275
ដើម	-5276
မြေ	-5277
はず	-5278
▁sarili	-5279
ဆင်း	-5280
何が	-5281
bay	-5282
▁ဦး	-5283
ជ្រើសរើស	-5284
▁food	-5285
たり	-5286
ានរង្វាន់	-5287
▁ຫນ້ອຍ	-5288
អារម្មណ៍	-5289
kaw	-5290
▁anymore	-5291
နီး	-5292
ារកិច្ច	-5293
ឡូវ	-5294
ມາຊິກ	-5295
ិកា	-5296
កំពូល	-5297
▁between	-5298
ສໍາລັບການ	-5299
nts	-5300
小さな	-5301
ဓိက	-5302
ဘာလ	-5303
Br	-5304
ທັນ	-5305
▁Med	-5306
▁oper	-5307
▁sister	-5308
TA	-5309
と呼	-5310
ໃຊ້ເວລາ	-5311
食べ	-5312
▁Pre	-5313
▁forg	-5314
ကိရိယာ	-5315
であ	-5316
လွယ်	-5317
ឥឡូវ	-5318
ပြီးတော့	-5319
ນອກ	-5320
លក្ខណៈ	-5321
ကွဲ	-5322
သီး	-5323
aki	-5324
ធីអិន	-5325
ーを	-5326
▁party	-5327
ບໍ່ແມ່ນ	-5328
▁fire	-5329
になりました	-5330
ົ່ານັ້ນ	-5331
▁sn	-5332
Take	-5333
aving	-5334
ဝန်ဆောင်မှု	-5335
umb	-5336
ခရီး	-5337
違う	-5338
▁TV	-5339
unch	-5340
ရိတ်	-5341
していた	-5342
▁magp	-5343
ປະຊາຊົນ	-5344
ira	-5345
ໂຄງການ	-5346
▁°	-5347
例えば	-5348
សាន្ត	-5349
အမျိုးအစား	-5350
មកពី	-5351
anger	-5352
デザ	-5353
សាក	-5354
▁လမ်း	-5355
កីឡ	-5356
ကလေး	-5357
▁အသုံး	-5358
▁luck	-5359
unin	-5360
ပေါ့။	-5361
▁သငျသညျ	-5362
2)	-5363
▁protect	-5364
▁អា	-5365
▁ໃດ	-5366
▁sex	-5367
ospital	-5368
ຕົວຢ່າງ	-5369
▁died	-5370
▁ນັກ	-5371
▁それは	-5372
▁anim	-5373
▁ຫນາດ	-5374
ဖုန်း	-5375
လေယာဉ်	-5376
▁Jack	-5377
ດຽວກັນ	-5378
ຶດ	-5379
អន	-5380
အမှတ်	-5381
▁ຄັ້ງ	-5382
ဆု	-5383
▁Cambod	-5384
ທ່ານສາມາດ	-5385
yn	-5386
▁Instagram	-5387
ham	-5388
▁27	-5389
long	-5390
▁kaibigan	-5391
ခြုံ	-5392
ត្រឹម	-5393
▁hari	-5394
ຂັ້ນ	-5395
▁minute	-5396
▁moment	-5397
ទូទាំង	-5398
▁makes	-5399
ဝေ	-5400
持ち	-5401
▁itin	-5402
▁これは	-5403
▁software	-5404
elt	-5405
nect	-5406
ေးဇူး	-5407
▁exactly	-5408
ဂါ	-5409
ahing	-5410
▁ເວລາ	-5411
▁自	-5412
្គាល់	-5413
ept	-5414
ertain	-5415
もち	-5416
ING	-5417
ထားတဲ့	-5418
▁ຜ	-5419
▁colle	-5420
La	-5421
らは	-5422
ler	-5423
っても	-5424
?”	-5425
▁z	-5426
サイ	-5427
500	-5428
rom	-5429
vern	-5430
▁kahit	-5431
▁អ៊ីធីអិន	-5432
ထိ	-5433
▁」	-5434
年間	-5435
ປັດ	-5436
atay	-5437
▁married	-5438
acy	-5439
ປຸງ	-5440
မီတာ	-5441
UM	-5442
ភ្ន	-5443
ាហ៍	-5444
agkatapos	-5445
ເວັນ	-5446
▁neg	-5447
組み	-5448
ຄານ	-5449
စိုက်	-5450
▁publ	-5451
ស្វែង	-5452
កើត	-5453
▁လို	-5454
ues	-5455
គណនី	-5456
Nag	-5457
ສົນ	-5458
▁ເຫັນ	-5459
▁order	-5460
ແຕ່ງ	-5461
はい	-5462
គ្	-5463
▁shot	-5464
uhan	-5465
ិនបើ	-5466
အရွယ်	-5467
ကျနော်တို့	-5468
រដ្ឋមន្ត្រី	-5469
អតិ	-5470
それで	-5471
▁ງານ	-5472
နည်းပညာ	-5473
ក្តី	-5474
OR	-5475
ရွေး	-5476
ໂຫຍ	-5477
ເຂົາເຈົ້າ	-5478
Re	-5479
▁もう	-5480
▁ໂລກ	-5481
君の	-5482
សកម្ម	-5483
ahay	-5484
ency	-5485
アル	-5486
ហែល	-5487
▁ເຊັ່ນ	-5488
ရောင်း	-5489
ーは	-5490
答え	-5491
▁របស់	-5492
ណ្ឋារកិច្ច	-5493
ອາກາດ	-5494
សាស្ត្រ	-5495
ically	-5496
ນະຄອນ	-5497
ကောင်	-5498
環境	-5499
だが	-5500
cess	-5501
AM	-5502
質問	-5503
▁pop	-5504
▁cent	-5505
ម្រិត	-5506
hin	-5507
ហេត	-5508
ices	-5509
នាង	-5510
ជ្	-5511
▁ໃນການ	-5512
変わ	-5513
ອີງ	-5514
▁nil	-5515
လှမ်း	-5516
▁ຂະ	-5517
生ま	-5518
ikha	-5519
သိမ်း	-5520
▁coup	-5521
ມື້ນີ້	-5522
▁300	-5523
▁Fil	-5524
adala	-5525
ស្ន	-5526
ピュー	-5527
▁ນາທີ	-5528
引き	-5529
ris	-5530
ってた	-5531
▁cell	-5532
ສໍາຄັນ	-5533
▁Cambodia	-5534
သံများ	-5535
▁အကြောင်း	-5536
ួង	-5537
alis	-5538
ເດີນທາງ	-5539
▁=	-5540
もちろ	-5541
▁class	-5542
ເດັກນ້ອຍ	-5543
ype	-5544
▁sil	-5545
ຫຼີ	-5546
coin	-5547
ista	-5548
▁elect	-5549
ស្រុក	-5550
アフ	-5551
ulta	-5552
▁kag	-5553
ាយកប្រតិបត្តិ	-5554
▁အမေရိကန်	-5555
方が	-5556
ipt	-5557
▁22	-5558
reng	-5559
てる	-5560
အကောင်းဆုံး	-5561
▁girls	-5562
ချယ်	-5563
彼が	-5564
▁]	-5565
သင့်ရဲ့	-5566
တပ်	-5567
▁でも	-5568
irit	-5569
▁នាក់	-5570
▁front	-5571
ateg	-5572
▁ဆို	-5573
▁IS	-5574
▁ある	-5575
▁San	-5576
▁esp	-5577
រៀបចំ	-5578
コンピュー	-5579
ថ្នាក់	-5580
ຄະ	-5581
▁ကျွန်တော်	-5582
ulan	-5583
▁Cal	-5584
ໂປ	-5585
▁buy	-5586
ຂະຫນາດ	-5587
ពង	-5588
解決	-5589
//	-5590
タイ	-5591
ခံရ	-5592
ភ្ជាប់	-5593
▁ຊີວິດ	-5594
ដូច្ន	-5595
oto	-5596
▁Up	-5597
▁comes	-5598
စီမံ	-5599
ຕະຫຼາດ	-5600
▁million	-5601
ရစ်	-5602
ရယ်	-5603
သတ္	-5604
alat	-5605
uel	-5606
とん	-5607
នាក់	-5608
▁creat	-5609
າມີ	-5610
▁waiting	-5611
តី	-5612
大な	-5613
့ကို	-5614
▁(20	-5615
ms	-5616
အဘယ်	-5617
▁though	-5618
ងឺ	-5619
を変	-5620
▁eng	-5621
ဘဲ	-5622
▁against	-5623
.”	-5624
WTO	-5625
ບິນ	-5626
ុប្ប	-5627
mas	-5628
ဂိမ်း	-5629
ជើងហោះហើរ	-5630
行動	-5631
pto	-5632
▁answer	-5633
ories	-5634
▁almost	-5635
▁ແບ	-5636
▁知	-5637
かか	-5638
経験	-5639
ແທ້	-5640
សុខ	-5641
່ວງ	-5642
ສະຖານທີ່	-5643
គម្រ	-5644
ault	-5645
men	-5646
ante	-5647
よね	-5648
រហ	-5649
ato	-5650
EN	-5651
ရှိသည်	-5652
ែប	-5653
oin	-5654
ទេ។	-5655
▁tried	-5656
ាក់ទំនង	-5657
de	-5658
ສື	-5659
EM	-5660
orge	-5661
អង់	-5662
ດໍາ	-5663
ច្ប	-5664
ສຸກ	-5665
ခဲ့သည်	-5666
://	-5667
ader	-5668
obal	-5669
ສາຫະ	-5670
▁iOS	-5671
▁send	-5672
ដូច្នេះ	-5673
ទំនាក់ទំនង	-5674
room	-5675
ရှည်	-5676
ဒါပေမဲ့	-5677
ចម្រ	-5678
▁Off	-5679
▁Thank	-5680
ຄາດ	-5681
ingin	-5682
▁ສອງ	-5683
ments	-5684
គួរឱ្យ	-5685
出て	-5686
ຫາກ	-5687
unk	-5688
uti	-5689
ကိန်း	-5690
igay	-5691
itch	-5692
▁ລາຍ	-5693
すご	-5694
tt	-5695
ခဲ	-5696
អាហ្វ	-5697
▁imag	-5698
ផលិតផល	-5699
ເວັບ	-5700
erv	-5701
ための	-5702
▁techn	-5703
VID	-5704
▁En	-5705
▁လှ	-5706
▁cur	-5707
▁ເອົາ	-5708
អភិវឌ្ឍន៍	-5709
▁kamay	-5710
របៀប	-5711
ຈະເປັນ	-5712
mp	-5713
えない	-5714
スター	-5715
တို့သည်	-5716
政府	-5717
រុញ	-5718
အစဉ်	-5719
ished	-5720
ទិសដៅទេសចរណ៍	-5721
ຖາມ	-5722
ឈាន	-5723
ພວກເຮົ	-5724
ians	-5725
ເສັ້ນ	-5726
▁ກ່ອນ	-5727
ປ່ຽນແປງ	-5728
ဆွဲ	-5729
ຫນືອ	-5730
បង់	-5731
▁သင့်	-5732
▁truth	-5733
upid	-5734
ograp	-5735
37	-5736
ean	-5737
utan	-5738
AD	-5739
になり	-5740
irth	-5741
▁Mark	-5742
sy	-5743
ໂດ	-5744
▁prop	-5745
▁ເທດ	-5746
らせ	-5747
asino	-5748
▁small	-5749
ិជន	-5750
ພາສາ	-5751
▁et	-5752
▁grand	-5753
▁forget	-5754
違い	-5755
▁couple	-5756
ស្ច	-5757
▁tub	-5758
uy	-5759
កូ	-5760
▁fav	-5761
ဘို့	-5762
▁dep	-5763
ໂທລະ	-5764
▁ပျ	-5765
▁close	-5766
ugn	-5767
▁black	-5768
起き	-5769
ກອນ	-5770
▁mam	-5771
▁wish	-5772
▁American	-5773
ဓါ	-5774
ថិជន	-5775
▁၂	-5776
ルの	-5777
ຢາ	-5778
ໄສ	-5779
年に	-5780
▁ຫນອງ	-5781
▁Ag	-5782
▁top	-5783
▁mine	-5784
▁ຫນູນ	-5785
word	-5786
ຫຼຸດ	-5787
ປະໂຫຍ	-5788
ស្ចារ្យ	-5789
ສູ່	-5790
ずっと	-5791
ball	-5792
65	-5793
Wait	-5794
▁Gener	-5795
ຸນາ	-5796
សេច	-5797
さらに	-5798
ains	-5799
ອາເມລິກາ	-5800
ဒီဇိုင်း	-5801
▁29	-5802
ugan	-5803
クト	-5804
បរិស	-5805
မှုများ	-5806
បដិសណ្ឋារកិច្ច	-5807
ាម៉ា	-5808
▁makita	-5809
ួប	-5810
ຮອດ	-5811
▁x	-5812
စတင်	-5813
▁bang	-5814
▁や	-5815
自身	-5816
not	-5817
▁nagl	-5818
ဖြစ်ပါတယ်	-5819
▁いい	-5820
▁office	-5821
ekto	-5822
▁City	-5823
▁drive	-5824
▁sweet	-5825
សំណ	-5826
▁Sm	-5827
witter	-5828
の子	-5829
uwa	-5830
▁Now	-5831
ស្ម	-5832
ປະທານາທິບໍດີ	-5833
が見	-5834
ເລັດ	-5835
ករណ៍	-5836
ရှိပါတယ်	-5837
発見	-5838
▁quite	-5839
もちろん	-5840
▁sabi	-5841
▁wind	-5842
បណ្តាញ	-5843
▁team	-5844
ក្លាយជា	-5845
ormasyon	-5846
レー	-5847
状況	-5848
ជំងឺ	-5849
▁ເສຍ	-5850
ໃຜ	-5851
ត្រូវបានគេ	-5852
ບັບ	-5853
ອັບ	-5854
▁arr	-5855
▁ကျွန်မတို့	-5856
ພ້ອມ	-5857
ional	-5858
မားသော	-5859
サン	-5860
ບ້ານ	-5861
សត្វ	-5862
hong	-5863
Sorry	-5864
ជំរុញ	-5865
ເກັບ	-5866
▁လျှ	-5867
ກອງປະຊຸມ	-5868
date	-5869
ផ្សព្វ	-5870
▁ຕາ	-5871
▁ແນະ	-5872
▁ຫຼັງຈາກ	-5873
key	-5874
တတ်	-5875
はない	-5876
▁lives	-5877
▁世界	-5878
ကြည်	-5879
្វិក	-5880
ັບສະຫນ	-5881
ພະລັງງານ	-5882
ael	-5883
我々の	-5884
ປ້ອງ	-5885
▁line	-5886
អនុវត្ត	-5887
គ្ល	-5888
Listen	-5889
ဏာ	-5890
▁3.	-5891
អស្ចារ្យ	-5892
ដុល្លារ	-5893
ປອດ	-5894
ແຕ່ລະ	-5895
▁dest	-5896
▁gener	-5897
ုတ	-5898
▁disc	-5899
▁Sal	-5900
▁blog	-5901
ダー	-5902
ugg	-5903
▁clos	-5904
▁less	-5905
▁inte	-5906
男性	-5907
org	-5908
▁six	-5909
おり	-5910
ເສຍຊີວິດ	-5911
ຂ້າ	-5912
▁behind	-5913
▁အားလုံး	-5914
▁ຫນັບ	-5915
ກໍາລັງ	-5916
ese	-5917
ណាស់	-5918
▁Ama	-5919
ondon	-5920
ແກ້ໄຂ	-5921
សេដ្ឋ	-5922
ដែលអាច	-5923
ke	-5924
ຍົກ	-5925
ដែលមិន	-5926
ໃກ້	-5927
▁自分	-5928
្រិក	-5929
မဏ	-5930
別の	-5931
imbawa	-5932
▁China	-5933
ကပ်	-5934
ផ្សព្វផ្សាយ	-5935
▁ក៏	-5936
ាប៊ី	-5937
っていました	-5938
かけ	-5939
ほとん	-5940
▁town	-5941
をする	-5942
າຍາມ	-5943
ວິທະຍາໄລ	-5944
uz	-5945
▁အများ	-5946
?」	-5947
uture	-5948
▁secret	-5949
▁malaking	-5950
EO	-5951
eta	-5952
Ma	-5953
cel	-5954
ເວລາທີ່	-5955
われ	-5956
ຊາວ	-5957
ုံ့	-5958
anta	-5959
▁Bag	-5960
သမီး	-5961
EC	-5962
▁Jud	-5963
တွဲ	-5964
▁easy	-5965
▁safe	-5966
▁fall	-5967
ဆံ	-5968
....	-5969
ບັນຫາ	-5970
▁code	-5971
ກໍລະ	-5972
ວ່າທ່ານ	-5973
ឥឡូវនេះ	-5974
ခဲ့တဲ့	-5975
▁Expert	-5976
▁Ben	-5977
助け	-5978
▁Ne	-5979
ក្រស	-5980
ອະນຸ	-5981
▁Tour	-5982
នៅឆ្នាំ	-5983
▁brought	-5984
▁control	-5985
っち	-5986
igt	-5987
▁ໄດ້ຖືກ	-5988
75	-5989
ແພ	-5990
Like	-5991
は何	-5992
publ	-5993
່ນອນ	-5994
目の	-5995
を受け	-5996
ວິດີ	-5997
▁red	-5998
▁parents	-5999
អាហ្វ្រិក	-6000
▁ព័ត៌មានអំពី	-6001
ແຈ	-6002
ဌာ	-6003
မဏိ	-6004
国の	-6005
▁become	-6006
ပါ၊	-6007
▁ဆေး	-6008
မြင့်	-6009
ကြိုက်	-6010
ឱកាស	-6011
បច្ចុប្ប	-6012
▁amin	-6013
ウィ	-6014
ບຸກ	-6015
くらい	-6016
roon	-6017
活動	-6018
akat	-6019
▁goes	-6020
との	-6021
誰か	-6022
の中で	-6023
▁AP	-6024
ຸ້ມ	-6025
အသစ်	-6026
▁telling	-6027
▁ထုတ်ကုန်များ	-6028
wo	-6029
しても	-6030
បន្ទាប់ពី	-6031
を与	-6032
大丈夫	-6033
▁ລູກ	-6034
▁ອາດ	-6035
▁gets	-6036
▁hang	-6037
uhin	-6038
hi	-6039
▁Mart	-6040
▁ທະ	-6041
ောက်အ	-6042
▁ແຫ່ງ	-6043
レン	-6044
ອຸດ	-6045
amin	-6046
ides	-6047
僕は	-6048
វាង	-6049
あなたが	-6050
ព្រម	-6051
▁hate	-6052
ជាអ្នក	-6053
安全	-6054
uit	-6055
រីករាយ	-6056
▁inform	-6057
話し	-6058
▁sig	-6059
ပြီးနောက်	-6060
ពិត	-6061
▁နာ	-6062
ເຫຼືອ	-6063
▁ໄດ້ຮັບ	-6064
ພູ	-6065
と同じ	-6066
အပြ	-6067
▁Your	-6068
come	-6069
だって	-6070
▁ນາງ	-6071
គំនិត	-6072
つも	-6073
ឈ្ន	-6074
▁somebody	-6075
▁2010	-6076
ເຊື່ອມ	-6077
Of	-6078
▁ကာ	-6079
▁aren	-6080
▁city	-6081
▁နှင့်အတူ	-6082
លើស	-6083
ប្រវ	-6084
ក្រសួង	-6085
▁serious	-6086
スは	-6087
uni	-6088
ထိုင်	-6089
▁needs	-6090
ທີ່ສຸດໃນ	-6091
ແຕກຕ່າງກັນ	-6092
ໍ້າ	-6093
ម្ត	-6094
▁Microsoft	-6095
oses	-6096
ະນຸດ	-6097
だろ	-6098
ប្រចាំ	-6099
ណីយដ្ឋាន	-6100
နိုင်ပါတယ်	-6101
人に	-6102
အထူး	-6103
សាស្រ្ត	-6104
▁ປະທານ	-6105
ဖွဲ့စည်း	-6106
មណីយដ្ឋាន	-6107
អាហ្រ	-6108
ហេតុ	-6109
ັງກິດ	-6110
一緒に	-6111
ched	-6112
អាហ្រ្វិក	-6113
ຶນ	-6114
▁dak	-6115
のために	-6116
▁ຂ່າວ	-6117
▁outside	-6118
အပူ	-6119
エネル	-6120
からない	-6121
▁full	-6122
▁sort	-6123
rest	-6124
▁198	-6125
を殺	-6126
ချာ	-6127
聞いて	-6128
Tube	-6129
ster	-6130
エネルギ	-6131
▁pinaka	-6132
▁စက်ရုံ	-6133
可能性	-6134
▁expect	-6135
usan	-6136
ဘာသာ	-6137
▁One	-6138
▁pur	-6139
▁ສົມ	-6140
たちが	-6141
earch	-6142
▁ကု	-6143
លី	-6144
▁မှတ်	-6145
ះពាល់	-6146
ကျွန်တော်တို့ရဲ့	-6147
ຄູ່	-6148
စ္စ	-6149
ທີ່ຖືກ	-6150
yd	-6151
AP	-6152
ပ္ပ	-6153
ဝယ်	-6154
Para	-6155
ိုလ်	-6156
▁ခုနှစ်	-6157
လျှောက်	-6158
ប៉ះពាល់	-6159
မည်။	-6160
OK	-6161
idge	-6162
ဖုန်	-6163
立ち	-6164
uling	-6165
▁figure	-6166
urry	-6167
ຢາກ	-6168
ທຸກໆ	-6169
ពិធី	-6170
គ្លេស	-6171
អាស៊ី	-6172
サー	-6173
▁living	-6174
ffect	-6175
read	-6176
▁cool	-6177
ເຜ	-6178
物を	-6179
iba	-6180
ສາກ	-6181
ង្ក	-6182
ສະຫຼ	-6183
▁Ito	-6184
ປະໂຫຍດ	-6185
ចុងក្រោយ	-6186
興味	-6187
ສອນ	-6188
iven	-6189
ship	-6190
These	-6191
48	-6192
Ne	-6193
これを	-6194
ニー	-6195
With	-6196
ering	-6197
▁2012	-6198
▁doll	-6199
ខ្សែធ្វើដំណើរ	-6200
ဿနာ	-6201
▁ເກມ	-6202
ktor	-6203
ຫຍາຍ	-6204
▁pain	-6205
ឧបករណ៍	-6206
au	-6207
្ឆ	-6208
သမား	-6209
▁IP	-6210
▁gumawa	-6211
តម្រូវការ	-6212
いに	-6213
កាន់តែ	-6214
អតិថិជន	-6215
ន័យ	-6216
▁bago	-6217
誰も	-6218
ないと	-6219
初めて	-6220
▁ເດັກ	-6221
ဘု	-6222
ធាត	-6223
▁ຫລາຍ	-6224
どれ	-6225
想像	-6226
agay	-6227
alit	-6228
ຂະນະທີ່	-6229
▁ច	-6230
▁larawan	-6231
▁perfect	-6232
▁ဟာ	-6233
▁Tom	-6234
▁ໄວ	-6235
အရည်အသွေး	-6236
▁Did	-6237
ត្បូង	-6238
ekt	-6239
▁Qu	-6240
itting	-6241
aga	-6242
បាយ	-6243
▁pus	-6244
▁computer	-6245
々な	-6246
会社	-6247
▁ພຽງ	-6248
▁list	-6249
▁ບໍລິ	-6250
amahusay	-6251
▁pinakam	-6252
မျှမ	-6253
見て	-6254
ສະນະ	-6255
▁cal	-6256
▁Comm	-6257
▁produkto	-6258
33	-6259
時代	-6260
oul	-6261
ຂ້າງ	-6262
EL	-6263
▁doon	-6264
▁ပေးသွင်း	-6265
iam	-6266
▁ខ្ញុំ	-6267
▁fre	-6268
▁save	-6269
မှမဟုတ်	-6270
オー	-6271
▁Mo	-6272
airs	-6273
うち	-6274
អង់គ្លេស	-6275
主義	-6276
ាករ	-6277
都市	-6278
▁ຮູບ	-6279
▁alive	-6280
▁stupid	-6281
ပစ်	-6282
▁សម	-6283
ったの	-6284
မယ့်	-6285
alin	-6286
iyak	-6287
▁ສ້າງ	-6288
に戻	-6289
embre	-6290
hys	-6291
▁COVID	-6292
▁option	-6293
治療	-6294
▁Mom	-6295
ທົ່ວໂລກ	-6296
思う	-6297
ຂອງຕົນ	-6298
ces	-6299
ဒါက	-6300
いつも	-6301
ilis	-6302
the	-6303
ម្ចាស់	-6304
ຄຸມ	-6305
▁ແຜ	-6306
▁complet	-6307
▁ទីក្រុង	-6308
ឈើ	-6309
にする	-6310
ille	-6311
無い	-6312
▁Look	-6313
លំ	-6314
簡単	-6315
たくさん	-6316
sik	-6317
▁War	-6318
မော်ဒယ်	-6319
▁Dan	-6320
កម្រិត	-6321
ဏ္	-6322
▁ス	-6323
ထပ်	-6324
ညွှန်	-6325
ລູກຄ້າ	-6326
inigay	-6327
af	-6328
▁ຣ	-6329
音楽	-6330
iga	-6331
Ngunit	-6332
ຂອງລາວ	-6333
ຕາເວັນ	-6334
បច្ចុប្បន្ន	-6335
間に	-6336
▁ຕ່າງ	-6337
▁birth	-6338
▁ကလေး	-6339
ទាក់ទាញ	-6340
▁priv	-6341
ສງ	-6342
レイ	-6343
ស៊ូ	-6344
▁45	-6345
▁hot	-6346
▁အပေါ်	-6347
▁doctor	-6348
大学	-6349
全ての	-6350
▁Est	-6351
ベル	-6352
前の	-6353
▁»	-6354
ປອດໄພ	-6355
iting	-6356
地域	-6357
ွတ်	-6358
▁tem	-6359
▁ພາຍ	-6360
説明	-6361
ipin	-6362
ပျက်	-6363
သော်	-6364
Our	-6365
ွေ့	-6366
ទាំងនេះ	-6367
ກວດ	-6368
ວິດີໂອ	-6369
▁俺	-6370
ံမှ	-6371
Give	-6372
សញ្ញ	-6373
▁Fore	-6374
▁မဟုတ်	-6375
dd	-6376
ပထမ	-6377
ards	-6378
▁Sol	-6379
ຂອງພວກເຂົາ	-6380
ផែន	-6381
われて	-6382
▁ອັນ	-6383
ປາ	-6384
▁equ	-6385
▁Park	-6386
▁ExpertO	-6387
をも	-6388
▁id	-6389
▁Ber	-6390
▁ມາດ	-6391
▁Frank	-6392
គម	-6393
中の	-6394
息子	-6395
ຫຼັກ	-6396
▁nab	-6397
▁ຜົນ	-6398
selves	-6399
▁touch	-6400
▁everybody	-6401
idd	-6402
Wala	-6403
នៅក្នុងប្រទេស	-6404
▁ste	-6405
アフリカ	-6406
ມົນຕີ	-6407
▁music	-6408
ទូល	-6409
ပိုက်	-6410
▁ເປັນຕ້ອງ	-6411
選択	-6412
ilt	-6413
▁London	-6414
ああ	-6415
▁Paris	-6416
ແກ່	-6417
▁intern	-6418
▁ເງ	-6419
បរិស្ថាន	-6420
akailangan	-6421
▁inyo	-6422
ស្ថាន	-6423
បច្ចេក	-6424
play	-6425
▁ພາກ	-6426
apagka	-6427
ものを	-6428
េស៊ី	-6429
▁Cor	-6430
▁cam	-6431
urity	-6432
သင်၏	-6433
これらの	-6434
ဖောက်	-6435
▁yours	-6436
▁special	-6437
Si	-6438
ហ្	-6439
ກຸ່ມ	-6440
▁၎င်း	-6441
ဘိုင်း	-6442
Will	-6443
ages	-6444
itcoin	-6445
▁ໃຫຍ່	-6446
ンが	-6447
物の	-6448
ສູງສຸດ	-6449
bisyo	-6450
UR	-6451
▁huwag	-6452
isk	-6453
មជ្	-6454
はどう	-6455
គ្មាន	-6456
▁ອາທິດ	-6457
အရေး	-6458
▁step	-6459
ជិត	-6460
ຕັ້ງແຕ່	-6461
手を	-6462
ortun	-6463
ပါဘူး။	-6464
បញ្ចប់	-6465
eb	-6466
Pro	-6467
▁သတင်း	-6468
OM	-6469
ias	-6470
ခန့်	-6471
ម្ភ	-6472
ເອກະ	-6473
デザイン	-6474
້ຽມ	-6475
ນະພາບ	-6476
▁laban	-6477
កំ	-6478
後の	-6479
ງາມ	-6480
▁adv	-6481
BS	-6482
▁私が	-6483
set	-6484
▁€	-6485
▁ယူ	-6486
組織	-6487
▁အသုံးပြု	-6488
▁ep	-6489
aces	-6490
ided	-6491
▁along	-6492
ုံကြည်	-6493
စမ်းသပ်	-6494
▁dinner	-6495
ニア	-6496
ຢືນ	-6497
Right	-6498
ကျိုး	-6499
ပါဘူး	-6500
▁laro	-6501
▁ອື່ນ	-6502
ប្រភេទ	-6503
onus	-6504
ူတာ	-6505
ສະເພາະ	-6506
ုပ်တို့၏	-6507
ເຢ	-6508
こそ	-6509
uce	-6510
▁ប្រធាន	-6511
▁ကျနော်တို့	-6512
▁future	-6513
物語	-6514
ឆ្លង	-6515
▁Pan	-6516
利用	-6517
mit	-6518
▁lay	-6519
▁box	-6520
ອົງການ	-6521
47	-6522
idence	-6523
fter	-6524
▁rad	-6525
Pl	-6526
ども	-6527
ဗျား	-6528
បង្កើន	-6529
▁dress	-6530
បង	-6531
iyon	-6532
ukan	-6533
ပုံစံ	-6534
さて	-6535
vert	-6536
ပေမယ့်	-6537
ວຽດ	-6538
ແຂ່ງ	-6539
▁彼は	-6540
စီးပွားရေး	-6541
ស្រី	-6542
ខាងត្បូង	-6543
iol	-6544
ឆ្កែ	-6545
▁impormasyon	-6546
ises	-6547
ius	-6548
ten	-6549
ume	-6550
វាយ	-6551
▁fell	-6552
ichael	-6553
▁feeling	-6554
▁Sim	-6555
ormal	-6556
ເຂົ້າຮ່ວມ	-6557
▁record	-6558
▁Twitter	-6559
ເຕີມ	-6560
▁ည	-6561
night	-6562
စက်မှု	-6563
シュ	-6564
ဖွေ	-6565
▁nas	-6566
教育	-6567
စျေးနှုန်း	-6568
ဖြစ်ကြ	-6569
ွယ်	-6570
ຮ່າງ	-6571
အပြင်	-6572
ໍານົດ	-6573
ຕິດຕາມ	-6574
gen	-6575
ខិត	-6576
▁ນົດ	-6577
▁Japan	-6578
▁ເບິ່ງ	-6579
ເຫຼົ່ານີ້	-6580
-1	-6581
▁hack	-6582
▁clean	-6583
遺伝	-6584
iece	-6585
စတစ်	-6586
▁nai	-6587
အလုပ်လုပ်	-6588
yp	-6589
ເວລ	-6590
ັກງານ	-6591
ona	-6592
uf	-6593
osyo	-6594
しましょう	-6595
危険	-6596
NUM	-6597
しまう	-6598
なのか	-6599
တရုတ်	-6600
しろ	-6601
ແທນ	-6602
▁FS	-6603
▁Green	-6604
▁mataas	-6605
iwang	-6606
状態	-6607
来て	-6608
▁ရက်	-6609
▁paggamit	-6610
ီတ	-6611
ណាម	-6612
ເທິງ	-6613
▁invest	-6614
សិក	-6615
အလင်း	-6616
▁resulta	-6617
តែង	-6618
▁company	-6619
全く	-6620
▁ເລືອກ	-6621
▁ការធ្វើដំណើរ	-6622
▁organ	-6623
ເຊຍ	-6624
▁နေ	-6625
ills	-6626
ပါပဲ	-6627
ဒီတော့	-6628
for	-6629
ုပျ	-6630
សហរដ្ឋអាមេរិក	-6631
ាណា	-6632
▁2,	-6633
ផ្សេងៗ	-6634
ណ៌	-6635
政治	-6636
ອົບ	-6637
ရှေ့	-6638
ひと	-6639
事は	-6640
▁なぜ	-6641
による	-6642
▁ຂ້າ	-6643
まる	-6644
ですね	-6645
▁មិន	-6646
ຖະກິດ	-6647
▁America	-6648
▁dumating	-6649
ってくれ	-6650
ທີ່ເປັນ	-6651
សេដ្ឋកិច្ច	-6652
អារ៉	-6653
▁tab	-6654
ပေါ်မှာ	-6655
▁ဒါက	-6656
▁အဖြစ်	-6657
ភ្ញៀវទេសចរ	-6658
▁Hindi	-6659
▁papel	-6660
ブラ	-6661
ວ່າຈະ	-6662
-5	-6663
ာဏ်	-6664
なくて	-6665
NUMX	-6666
ທາງການ	-6667
ization	-6668
irm	-6669
sc	-6670
▁address	-6671
pre	-6672
ပ်စစ်	-6673
▁hotel	-6674
ស្វែងរក	-6675
まった	-6676
ក្នុងឆ្នាំ	-6677
iter	-6678
អត្ថ	-6679
wards	-6680
なりません	-6681
▁pagh	-6682
▁either	-6683
ັບສະຫນູນ	-6684
のある	-6685
ណ្ឌល	-6686
▁pull	-6687
▁trouble	-6688
▁hospital	-6689
achine	-6690
yembre	-6691
▁favor	-6692
95	-6693
fer	-6694
ធាតុ	-6695
ထားသော	-6696
por	-6697
▁dig	-6698
▁ແມ່	-6699
▁ເກີດ	-6700
IM	-6701
វី	-6702
▁ສູງ	-6703
Would	-6704
▁គឺ	-6705
彼女の	-6706
bar	-6707
▁Me	-6708
ເນີນ	-6709
▁ບ່ອນ	-6710
言いました	-6711
▁sinasabi	-6712
イス	-6713
ສຶກສາ	-6714
ຄອບຄົວ	-6715
Ikaw	-6716
ising	-6717
ເອີ້ນ	-6718
ကာကွယ်	-6719
▁lalaki	-6720
ped	-6721
បំណ	-6722
▁Mrs	-6723
ですから	-6724
itong	-6725
alay	-6726
▁အခမဲ့	-6727
See	-6728
▁150	-6729
▁custom	-6730
▁boys	-6731
ရှောက်	-6732
36	-6733
အဝေး	-6734
အစိတ်အပိုင်း	-6735
価値	-6736
▁funny	-6737
ជ័យ	-6738
▁Ap	-6739
▁ener	-6740
▁bakit	-6741
una	-6742
ແຂງ	-6743
れない	-6744
▁quick	-6745
Cl	-6746
▁YOU	-6747
さえ	-6748
すぎ	-6749
▁と	-6750
joy	-6751
ູ້ນ	-6752
အကြံ	-6753
▁ກົດ	-6754
▁ຕອບ	-6755
に見	-6756
သူမျှမ	-6757
ួច	-6758
▁រូប	-6759
▁២០១	-6760
▁Aust	-6761
▁သံ	-6762
▁mist	-6763
បារ	-6764
▁attack	-6765
ased	-6766
សុខភាព	-6767
やり	-6768
の人々	-6769
အဆင့်	-6770
ယံ	-6771
ປັບປຸງ	-6772
Ako	-6773
ចែក	-6774
くる	-6775
▁nakita	-6776
ミュ	-6777
ဒေသ	-6778
▁leaving	-6779
▁ama	-6780
▁ບາງ	-6781
ន្យ	-6782
တွေရဲ့	-6783
មួយចំនួន	-6784
ກ່ຽວ	-6785
សមុទ្រ	-6786
ilos	-6787
▁II	-6788
េន	-6789
iang	-6790
စီအစဉ်	-6791
▁weeks	-6792
ທີ່ຜ່ານມາ	-6793
4,	-6794
いで	-6795
実は	-6796
▁link	-6797
ຜູ້ໃຊ້	-6798
ရွှ	-6799
ណែន	-6800
ibers	-6801
▁hair	-6802
aliksik	-6803
ico	-6804
គមន៍	-6805
တဲ့အခါ	-6806
ຂັນ	-6807
▁IT	-6808
Ngayon	-6809
ခေါင်း	-6810
ုပ်ရှား	-6811
វេទ	-6812
▁Web	-6813
ຕິດຕັ້ງ	-6814
ထုတ်လုပ်မှု	-6815
right	-6816
▁nakat	-6817
តា	-6818
ုတေ	-6819
▁United	-6820
eck	-6821
Pero	-6822
ាធារ	-6823
Hello	-6824
▁grow	-6825
စောင့်	-6826
ちゃん	-6827
entle	-6828
ឆ្លើយ	-6829
フェ	-6830
▁wall	-6831
のよ	-6832
様々な	-6833
တာဝန်	-6834
ccess	-6835
38	-6836
ហោ	-6837
人類	-6838
ຫນ່ງ	-6839
ຫນ້ອຍ	-6840
▁mov	-6841
ាគមន៍	-6842
▁taken	-6843
ええ	-6844
ဖိ	-6845
ທຶນ	-6846
▁mot	-6847
ມາຈາກ	-6848
ារបស់	-6849
တိုးတက်	-6850
ួស	-6851
ゆる	-6852
inst	-6853
သတ်မှတ်	-6854
ອິນ	-6855
ったら	-6856
vious	-6857
ລາຍງານ	-6858
".	-6859
▁မော်	-6860
▁sick	-6861
▁habang	-6862
Pagkatapos	-6863
iber	-6864
ກະຕິ	-6865
ဇာတ်	-6866
ကောက်ခံ	-6867
រច	-6868
ຊຸດ	-6869
ឆ្នេរ	-6870
ໃນວັນທີ	-6871
▁ExpertOption	-6872
ៃត	-6873
រំល	-6874
ဆက်သွယ်	-6875
▁report	-6876
ຂອບໃຈ	-6877
lish	-6878
▁cond	-6879
▁sumus	-6880
たちの	-6881
ທີ່ບໍ່	-6882
ກວ	-6883
VC	-6884
実験	-6885
လယ်	-6886
တွေ၊	-6887
ially	-6888
▁self	-6889
▁treat	-6890
したり	-6891
になって	-6892
តុល	-6893
▁return	-6894
を探	-6895
ກິນ	-6896
ikong	-6897
ដែលអ្នក	-6898
ព័ត៌មានទេសចរណ៍	-6899
haps	-6900
ណែនាំ	-6901
▁foot	-6902
▁ວັນທີ	-6903
ဝတ်	-6904
▁Sto	-6905
▁という	-6906
အမ	-6907
ged	-6908
ទីតាំង	-6909
Na	-6910
映画	-6911
ရမ်း	-6912
されました	-6913
▁Ro	-6914
្វីប	-6915
▁magb	-6916
OT	-6917
ele	-6918
ທ໌	-6919
気づ	-6920
部分	-6921
សន្ន	-6922
▁Rom	-6923
▁dal	-6924
Gusto	-6925
▁kump	-6926
ាយការណ៍	-6927
3,	-6928
がない	-6929
ពេលវេ	-6930
MS	-6931
emy	-6932
hem	-6933
နောက်ဆုံး	-6934
ຊອບ	-6935
Bl	-6936
ソン	-6937
ຍາກ	-6938
Gr	-6939
អាត	-6940
▁ອະ	-6941
シー	-6942
ffee	-6943
န္ဒ	-6944
ញ្ញាត	-6945
ຣິກ	-6946
ានិ	-6947
ອກາດ	-6948
▁ပြောင်း	-6949
ເຄີຍ	-6950
▁King	-6951
▁NBA	-6952
られない	-6953
ការងារ	-6954
ຍານ	-6955
ພະນ	-6956
ခြားနား	-6957
▁nagpap	-6958
Ah	-6959
ပိုမို	-6960
▁travel	-6961
アン	-6962
iot	-6963
▁val	-6964
▁ibinigay	-6965
▁If	-6966
▁Mal	-6967
កម្សាន្ត	-6968
zon	-6969
orts	-6970
នាទី	-6971
▁Group	-6972
▁govern	-6973
ເລກ	-6974
アイデ	-6975
မဆို	-6976
ຕໍ	-6977
を開	-6978
elcome	-6979
▁lupa	-6980
ສະມາຊິກ	-6981
ອະນຸຍາດ	-6982
ipat	-6983
Huwag	-6984
မျှော်	-6985
uin	-6986
▁ວິ	-6987
ຊະນະ	-6988
▁applic	-6989
ສໍາເລັດ	-6990
▁certain	-6991
落ち	-6992
▁tubig	-6993
ວະ	-6994
▁lead	-6995
▁ຝ	-6996
ini	-6997
ូតដល់	-6998
ックス	-6999
覚えて	-7000
マー	-7001
မခံ	-7002
に行く	-7003
ငွေ့	-7004
0.	-7005
付け	-7006
ຸຂະ	-7007
▁ဂျ	-7008
velop	-7009
ခွန်း	-7010
▁ကောင်း	-7011
▁Angel	-7012
▁ating	-7013
ິວ	-7014
られます	-7015
▁ပေါ်	-7016
အထိ	-7017
នៅពេល	-7018
▁pangun	-7019
dam	-7020
▁ပတ်	-7021
ផ្តល់នូវ	-7022
何も	-7023
させる	-7024
未来	-7025
រូបថត	-7026
uction	-7027
▁karan	-7028
အားဖြင့်	-7029
ានី	-7030
▁strong	-7031
彼らの	-7032
歴史	-7033
agp	-7034
教えて	-7035
▁ສີ	-7036
ဖြိုး	-7037
ဥပမာ	-7038
▁Tool	-7039
▁happens	-7040
▁pinakamahusay	-7041
សូម	-7042
ເທົ່າ	-7043
Thanks	-7044
ສຶກ	-7045
▁parehong	-7046
ກົງ	-7047
ឥណ្ឌា	-7048
ការពារ	-7049
▁kapat	-7050
risto	-7051
せる	-7052
ៃតង	-7053
ကော်	-7054
▁gaya	-7055
していました	-7056
▁health	-7057
▁running	-7058
ណិត	-7059
អេស	-7060
ຫວັດ	-7061
▁Wood	-7062
ွက်	-7063
▁ball	-7064
ວຽດນາມ	-7065
▁គ្រ	-7066
ပစ္စည်းများ	-7067
▁web	-7068
ខ្ច	-7069
astic	-7070
aptain	-7071
ផងដែរ។	-7072
▁အချိန်	-7073
ados	-7074
itor	-7075
pose	-7076
မှန်း	-7077
UN	-7078
နု	-7079
you	-7080
▁MP	-7081
かない	-7082
ស្រា	-7083
▁flo	-7084
arb	-7085
▁Mad	-7086
uring	-7087
ຂະຫຍາຍ	-7088
ស្រួល	-7089
amihan	-7090
ອຽດ	-7091
upo	-7092
▁နိုင်ငံ	-7093
めた	-7094
んた	-7095
ຣົບ	-7096
▁4.	-7097
▁email	-7098
បន្ទប់	-7099
▁simple	-7100
▁sun	-7101
▁fix	-7102
▁kak	-7103
ຮູບພາບ	-7104
မှုန့်	-7105
-2	-7106
သဘော	-7107
▁lose	-7108
ប្រវត្តិ	-7109
▁opt	-7110
ធ្យ	-7111
ស្គាល់	-7112
-4	-7113
ထု	-7114
ពណ៌	-7115
ລັດຖະບານ	-7116
បញ្ជ	-7117
ປະສົບການ	-7118
ပါတ်	-7119
▁cannot	-7120
▁niyang	-7121
ໄຊທ໌	-7122
▁pack	-7123
▁ກ່ຽວ	-7124
ແມ່ຍິງ	-7125
ឈមណ្ឌល	-7126
▁ដង	-7127
ການສຶກສາ	-7128
▁ク	-7129
ຮອບ	-7130
ilangang	-7131
ရွေးချယ်	-7132
មូលដ្ឋាន	-7133
▁エ	-7134
ids	-7135
aham	-7136
▁ແບບ	-7137
を見つけ	-7138
-8	-7139
友達	-7140
▁sell	-7141
Walang	-7142
▁South	-7143
ဘဝ	-7144
ロボ	-7145
GH	-7146
向か	-7147
週間	-7148
ເຊື້ອ	-7149
စာမျက်နှာ	-7150
ທຶກ	-7151
ລະຫັດ	-7152
ဦးဆုံး	-7153
▁develop	-7154
▁い	-7155
ဖွံ့	-7156
▁bitch	-7157
សម្រាប់អ្នក	-7158
His	-7159
atan	-7160
បំណង	-7161
▁LED	-7162
▁မီ	-7163
▁opp	-7164
において	-7165
▁Please	-7166
部屋	-7167
ငျ့	-7168
▁YouTube	-7169
ismo	-7170
ການຄ້າ	-7171
Kapag	-7172
ធ្លាក់	-7173
▁ដែលមាន	-7174
金を	-7175
実際に	-7176
ဒေတာ	-7177
▁XNUMX	-7178
IV	-7179
へと	-7180
調査	-7181
ບາດ	-7182
すべき	-7183
ション	-7184
▁loc	-7185
▁surpr	-7186
▁talaga	-7187
計画	-7188
67	-7189
តប	-7190
acher	-7191
ទាក់ទង	-7192
များတွင်	-7193
▁နည်းပညာ	-7194
▁တကယ်	-7195
ຄວາມຄິດ	-7196
ွား	-7197
▁av	-7198
わない	-7199
▁htt	-7200
:5	-7201
悪い	-7202
ならない	-7203
ទស្សន	-7204
▁ayon	-7205
▁whatever	-7206
၏။	-7207
▁buk	-7208
▁buw	-7209
▁ຫົວ	-7210
▁aut	-7211
iation	-7212
ជីវិ	-7213
▁tek	-7214
ることは	-7215
ັງຄົມ	-7216
▁ຢູ່ໃນ	-7217
အွန်လိုင်း	-7218
▁ເຕ	-7219
▁ເງິນ	-7220
របស់ប្រទេស	-7221
Hi	-7222
ពាក់	-7223
ental	-7224
このような	-7225
ဖွံ့ဖြိုး	-7226
ີບ	-7227
ທັບ	-7228
akes	-7229
ဖိုး	-7230
ម៉ាក	-7231
ສຸດທ້າຍ	-7232
リスト	-7233
hip	-7234
ເລື	-7235
▁ກໍ່	-7236
▁ວຽກ	-7237
ជីវិត	-7238
ាឡ	-7239
ဒါဟာ	-7240
Somet	-7241
ປະສິດ	-7242
▁Phil	-7243
▁offic	-7244
ថៃ	-7245
▁damn	-7246
▁ຜ່ານ	-7247
健康	-7248
複雑	-7249
▁ໄລ	-7250
irus	-7251
ဖန်တီး	-7252
Pr	-7253
現実	-7254
▁こう	-7255
▁Afr	-7256
▁Del	-7257
ပြောင်းလဲ	-7258
ced	-7259
ဏ္ဍ	-7260
▁Ta	-7261
つもり	-7262
▁2011	-7263
▁Center	-7264
成功	-7265
▁ទៅ	-7266
Does	-7267
ປ່ອຍ	-7268
することが	-7269
結婚	-7270
いは	-7271
ှနျ	-7272
ທ່ອງ	-7273
ບຄຸມ	-7274
されています	-7275
ມັນເປັນ	-7276
▁♫	-7277
らく	-7278
င်မ	-7279
ခွင့်	-7280
ival	-7281
ຕ້ານ	-7282
▁possible	-7283
ដ៏អស្ចារ្យ	-7284
ក្រៅ	-7285
្រីក	-7286
ស្រាយ	-7287
▁interes	-7288
ສ້າງຕັ້ງ	-7289
Up	-7290
▁ໂຄ	-7291
からの	-7292
လွှာ	-7293
▁tal	-7294
ena	-7295
ນັບ	-7296
ことも	-7297
▁gumagamit	-7298
):	-7299
▁uri	-7300
▁fast	-7301
心配	-7302
▁ສັນ	-7303
ລະອຽດ	-7304
ping	-7305
▁សូម	-7306
arian	-7307
បញ្ជាក់	-7308
▁Paul	-7309
ອັງກິດ	-7310
ထိန်းချုပ်	-7311
ထုတ်လုပ်သူ	-7312
▁行	-7313
事が	-7314
iron	-7315
ကူညီ	-7316
▁picture	-7317
戦争	-7318
▁ໂຮງ	-7319
ទ្វីប	-7320
▁danger	-7321
ບອກ	-7322
▁အခြား	-7323
▁တွေကို	-7324
ໄມ້	-7325
▁begin	-7326
▁kontr	-7327
NC	-7328
こち	-7329
ຫລດ	-7330
lang	-7331
▁rob	-7332
ပျော်	-7333
▁mata	-7334
រា	-7335
機能	-7336
ដែន	-7337
▁Gre	-7338
ကြမ်း	-7339
テク	-7340
bit	-7341
ands	-7342
▁bur	-7343
んでいる	-7344
download	-7345
ified	-7346
▁Post	-7347
ប្តាហ៍	-7348
ໂຣ	-7349
体の	-7350
လျက်	-7351
សេចក្តី	-7352
တံဆိပ်	-7353
တကယ်	-7354
▁lock	-7355
▁ring	-7356
▁scared	-7357
ປັດຈຸບັນ	-7358
pen	-7359
▁naka	-7360
ຸຂະພາບ	-7361
▁400	-7362
▁သူ့	-7363
irtual	-7364
▁makat	-7365
ym	-7366
▁パ	-7367
▁Mus	-7368
▁bud	-7369
alt	-7370
▁ພ້ອມ	-7371
▁Sw	-7372
face	-7373
デル	-7374
私を	-7375
▁ໂມ	-7376
▁pagitan	-7377
▁gag	-7378
▁client	-7379
ເຊິ່ງ	-7380
▁အခြေ	-7381
န်းကျင်	-7382
▁បាននិយាយថា	-7383
គ្រោះ	-7384
ចំណោម	-7385
ໂທລະສັບ	-7386
▁kapatid	-7387
を通	-7388
ທ່ຽວ	-7389
▁smart	-7390
!"	-7391
uman	-7392
▁hist	-7393
ាធិការ	-7394
▁shouldn	-7395
▁information	-7396
を使って	-7397
▁libro	-7398
က်ဘ	-7399
ature	-7400
ສັນຍາ	-7401
▁UNWTO	-7402
中に	-7403
成長	-7404
ဖွယ်	-7405
▁ភាគ	-7406
ជុំវិញ	-7407
▁Per	-7408
▁cre	-7409
▁Barb	-7410
ພະຍາຍາມ	-7411
រួមបញ្ចូល	-7412
やる	-7413
atak	-7414
▁မီး	-7415
ရှိသည်။	-7416
aff	-7417
ຈັບ	-7418
ណ្ណោះ	-7419
▁block	-7420
49	-7421
IA	-7422
▁カ	-7423
▁press	-7424
ကောက်ခံရေး	-7425
មធ្យ	-7426
▁Roy	-7427
▁dear	-7428
▁gamitin	-7429
▁Rep	-7430
▁mali	-7431
ဘာဝ	-7432
▁pangunahing	-7433
32	-7434
▁Ac	-7435
သန်း	-7436
▁ທັນ	-7437
▁asking	-7438
ager	-7439
▁bay	-7440
▁ខណៈ	-7441
▁pakik	-7442
▁salita	-7443
ati	-7444
က္က	-7445
▁ເນີນ	-7446
ဖြေရှင်း	-7447
Dr	-7448
欲しい	-7449
▁sold	-7450
▁ເຫມາະ	-7451
▁magiging	-7452
ສົງ	-7453
▁Esp	-7454
▁whe	-7455
▁edad	-7456
DF	-7457
自然	-7458
▁ဘယ်လို	-7459
▁ຕິດ	-7460
Bet	-7461
ahe	-7462
連れて	-7463
3)	-7464
▁ហ	-7465
▁ຕົນ	-7466
ディア	-7467
ထင်	-7468
▁ແຂ	-7469
ほとんど	-7470
ປະຈຸບັນ	-7471
ទំហ	-7472
▁clear	-7473
▁shall	-7474
ພໍ	-7475
▁ハ	-7476
ປະກັນ	-7477
▁commun	-7478
PA	-7479
လန်	-7480
មកដល់	-7481
ាម៉ាអ៊ី	-7482
▁និងអ្នក	-7483
ဆဲ	-7484
អនុញ្ញាត	-7485
ランド	-7486
Le	-7487
ខុសត្រូវ	-7488
%.	-7489
十分	-7490
ຜູ້ທີ່	-7491
ពានរង្វាន់	-7492
終わ	-7493
合わせ	-7494
Isang	-7495
▁နှ	-7496
▁Ass	-7497
ឿន	-7498
igit	-7499
usal	-7500
စာရင်း	-7501
Stop	-7502
▁အရာ	-7503
လေ့လာ	-7504
ហ្សាម៉ាអ៊ី	-7505
▁ລວມ	-7506
▁filter	-7507
araan	-7508
されている	-7509
▁download	-7510
▁Mon	-7511
▁cold	-7512
▁ເພີ່ມ	-7513
publish	-7514
ຮມ	-7515
けない	-7516
チーム	-7517
ជាក់	-7518
សហគមន៍	-7519
ແຂ່ງຂັນ	-7520
ប៉ុណ្ណោះ	-7521
上の	-7522
အဲဒီ	-7523
▁Jos	-7524
ແນ່ນອນ	-7525
▁sense	-7526
▁anybody	-7527
▁ຊື່	-7528
▁ကနေ	-7529
▁lady	-7530
ບໍ່ສາມາດ	-7531
ប័	-7532
▁197	-7533
▁fly	-7534
After	-7535
លើការ	-7536
istr	-7537
ໂຫລດ	-7538
ຂັ້ນຕອນ	-7539
ឆ្លើយតប	-7540
ក្នុងស្រុក	-7541
bed	-7542
ពេលវេល	-7543
▁honey	-7544
過去	-7545
lad	-7546
▁German	-7547
▁promise	-7548
လဲ။	-7549
ហ្សាម៉ាអ៊ីក	-7550
ລອງ	-7551
フラン	-7552
init	-7553
OW	-7554
rod	-7555
နေတာ	-7556
Alam	-7557
တစ်ဦးက	-7558
▁Colle	-7559
▁anyway	-7560
▁looked	-7561
ဌာန	-7562
ចក្រ	-7563
▁Red	-7564
▁ahead	-7565
="2.	-7566
ahang	-7567
ទស្សនា	-7568
▁ginagawa	-7569
▁Te	-7570
▁ຕໍາ	-7571
ចំណូល	-7572
▁bank	-7573
ດັ່ງນັ້ນ	-7574
ຕໍາ	-7575
iddle	-7576
និងការ	-7577
バイ	-7578
aur	-7579
▁ကွန်	-7580
ပြိုင်	-7581
ເພີ່ມເຕີມ	-7582
▁nagbibigay	-7583
ជួប	-7584
▁pas	-7585
私達は	-7586
▁ທີ່ດີ	-7587
ジー	-7588
ロボット	-7589
▁အိမ်	-7590
ເອກະສານ	-7591
▁teorya	-7592
មេ	-7593
iety	-7594
ຊັ້ນ	-7595
ທົ່ວໄປ	-7596
▁မူ	-7597
အမည်	-7598
ဥပဒေ	-7599
amsung	-7600
▁lalake	-7601
យ៉ា	-7602
▁ID	-7603
ulad	-7604
ရတဲ့	-7605
ဆိုက်	-7606
▁និងទេសចរណ៍សកល	-7607
深い	-7608
▁ປະກ	-7609
າງວັນ	-7610
▁nagsis	-7611
box	-7612
sych	-7613
ပ္ပံ	-7614
ipe	-7615
ាគត	-7616
▁どこ	-7617
awak	-7618
▁Kung	-7619
ຮອງ	-7620
▁write	-7621
らず	-7622
▁ດຽວ	-7623
cross	-7624
▁social	-7625
▁magkaroon	-7626
raft	-7627
34	-7628
သြ	-7629
ឈប់	-7630
គ្គល	-7631
ounds	-7632
▁questions	-7633
を取り	-7634
▁High	-7635
▁allow	-7636
▁connect	-7637
ຫາຍ	-7638
ង្គម	-7639
cript	-7640
irang	-7641
▁Alex	-7642
▁respons	-7643
だな	-7644
のを	-7645
考える	-7646
អូឌី	-7647
▁iPad	-7648
ថ្ងៃនេះ	-7649
▁building	-7650
គី	-7651
ាទី	-7652
▁ពី	-7653
▁Pres	-7654
▁Word	-7655
គេហ	-7656
いたい	-7657
らゆる	-7658
を持つ	-7659
roy	-7660
により	-7661
ခိုင်	-7662
▁phys	-7663
▁Earth	-7664
នៅថ្ងៃទី	-7665
LC	-7666
ibo	-7667
tle	-7668
ផ្អ	-7669
Even	-7670
ລຸ້ນ	-7671
များစွာ	-7672
ကြားချက်	-7673
▁network	-7674
▁function	-7675
nes	-7676
▁Art	-7677
▁Right	-7678
ရှိပါတယ်။	-7679
ပါအ	-7680
▁ໂດ	-7681
なくな	-7682
▁ဖန်	-7683
のですが	-7684
ຕັດສິນ	-7685
警察	-7686
にして	-7687
eople	-7688
ពិព័រ	-7689
សាធារ	-7690
ទ្រព្យ	-7691
olution	-7692
SA	-7693
ba	-7694
人間の	-7695
ague	-7696
▁kiss	-7697
だけでなく	-7698
គិតថ្លៃ	-7699
="1.	-7700
ຣິກາ	-7701
ຍົມ	-7702
ibong	-7703
▁conc	-7704
ំពឹង	-7705
▁harap	-7706
ono	-7707
នៅទីក្រុង	-7708
病気	-7709
アイデア	-7710
▁2008	-7711
▁sang	-7712
1:	-7713
សី	-7714
ming	-7715
ນຶ່ງ	-7716
▁bull	-7717
aaralan	-7718
លវិទ្យាល័យ	-7719
បូ	-7720
ແຫຼ	-7721
ipas	-7722
▁1000	-7723
ikasyon	-7724
▁malapit	-7725
ធិ	-7726
/20	-7727
られて	-7728
▁gen	-7729
▁ນ້ອຍ	-7730
ោះស្រាយ	-7731
အသံ	-7732
下さい	-7733
ເປົ້າ	-7734
▁brain	-7735
▁ລັດຖະ	-7736
ລັດຖະມົນຕີ	-7737
uge	-7738
▁wrote	-7739
を得	-7740
上が	-7741
akt	-7742
でしょ	-7743
ສະຫນອງ	-7744
angyari	-7745
ຂອງຂ້ອຍ	-7746
God	-7747
ຢູ່ທີ່	-7748
▁TO	-7749
ules	-7750
សកម្មភាព	-7751
▁Tur	-7752
▁២០២	-7753
▁ut	-7754
我々が	-7755
ဖွင့်	-7756
▁contin	-7757
飛行	-7758
▁ling	-7759
▁entire	-7760
apon	-7761
អំឡុង	-7762
を行	-7763
▁ကား	-7764
ປະຈໍາ	-7765
ission	-7766
ສະນັ້ນ	-7767
ပြန်လည်	-7768
▁others	-7769
တ္တာ	-7770
ညွှန်း	-7771
រថ	-7772
ຸລາ	-7773
▁2009	-7774
Ap	-7775
ify	-7776
ries	-7777
usap	-7778
▁Dep	-7779
အနည်း	-7780
ពិន្ទ	-7781
ナー	-7782
ブル	-7783
ugo	-7784
ေတ်	-7785
cuse	-7786
ຮ້າຍ	-7787
oid	-7788
ませんでした	-7789
高い	-7790
used	-7791
▁view	-7792
ទូរ	-7793
igtas	-7794
apa	-7795
聞いた	-7796
▁ຊາຍ	-7797
企業	-7798
ទំហំ	-7799
ຄອມ	-7800
ធុង	-7801
ຄວບຄຸມ	-7802
▁words	-7803
▁sariling	-7804
အသက်	-7805
▁gay	-7806
ກະທົບ	-7807
▁seems	-7808
▁ມີຄວາມ	-7809
ကဲ့သို့သော	-7810
ធន	-7811
▁mer	-7812
▁ຂ້າພະເຈົ້າ	-7813
かも	-7814
なさい	-7815
に対する	-7816
ស្ស៊ី	-7817
လုံခြုံ	-7818
▁market	-7819
特に	-7820
သငျသညျ	-7821
▁space	-7822
▁tunay	-7823
ua	-7824
医療	-7825
▁ແກ	-7826
ຄຸນນະພາບ	-7827
▁percent	-7828
VD	-7829
効果	-7830
ကွာ	-7831
▁pah	-7832
ရယ်သံများ	-7833
▁%	-7834
▁វ	-7835
ola	-7836
san	-7837
プロジェ	-7838
isita	-7839
អនាគត	-7840
ကျေးဇူး	-7841
▁lupain	-7842
IP	-7843
araw	-7844
▁short	-7845
▁ເຊື່ອ	-7846
▁changed	-7847
▁pumunta	-7848
に出	-7849
ជន៍	-7850
ំពុង	-7851
raight	-7852
▁ທ່ານສາມາດ	-7853
IL	-7854
▁ແຕ	-7855
▁camp	-7856
cause	-7857
លើសពី	-7858
▁drug	-7859
▁dark	-7860
ດໍາເນີນ	-7861
▁ທີ່ຈະ	-7862
ពិព័រណ៍	-7863
ពិភពលោក។	-7864
早く	-7865
ທະນາຄານ	-7866
iate	-7867
မိတ်	-7868
បុគ្គល	-7869
▁Tag	-7870
ມະນຸດ	-7871
ທົດສອບ	-7872
▁known	-7873
▁tinat	-7874
▁longer	-7875
ွမ်းကျင်	-7876
▁shut	-7877
▁気	-7878
Com	-7879
▁amaz	-7880
▁playing	-7881
-6	-7882
សម្រេច	-7883
DP	-7884
コー	-7885
中で	-7886
ການສະ	-7887
យោជន៍	-7888
▁pagd	-7889
▁access	-7890
▁ນຶ່ງ	-7891
အကျိုး	-7892
ຟັງ	-7893
ទិដ្ឋ	-7894
▁felt	-7895
▁West	-7896
▁ຊ່ວຍ	-7897
ស្វាគមន៍	-7898
ເຊື່ອມຕໍ່	-7899
yay	-7900
▁ກອງ	-7901
ប្រយោជន៍	-7902
ຕ່າງປະເທດ	-7903
ရဲ	-7904
生命	-7905
私に	-7906
ဖုံး	-7907
ួសារ	-7908
▁abs	-7909
န်းမာ	-7910
▁isin	-7911
ຜູ້ຊາຍ	-7912
ches	-7913
ဖော်ပြ	-7914
▁ເຫຼ	-7915
សាអូឌី	-7916
တို့၏	-7917
សាអូឌីត	-7918
▁Bitcoin	-7919
文化	-7920
ိုးရ	-7921
▁cost	-7922
ឹះ	-7923
រស់	-7924
ິຖ	-7925
▁គ	-7926
ແສງ	-7927
အပို	-7928
▁Grand	-7929
ຫຼິ້ນ	-7930
ເນື້ອ	-7931
ພື້ນຖານ	-7932
感情	-7933
အေး	-7934
တွေး	-7935
ယခင်	-7936
ໃຫ້ເຫັນ	-7937
ကွဲပြား	-7938
ging	-7939
▁自分の	-7940
なんです	-7941
▁Network	-7942
ဝှ	-7943
idos	-7944
▁term	-7945
ray	-7946
ထူး	-7947
ໄປໃນ	-7948
unang	-7949
ຄວາມເປັນ	-7950
▁ກ່າວວ່າ	-7951
▁32	-7952
board	-7953
▁process	-7954
▁ဒါပေမဲ့	-7955
hal	-7956
▁cap	-7957
▁loved	-7958
ibersidad	-7959
ချီ	-7960
▁ini	-7961
ンス	-7962
សង្	-7963
PC	-7964
▁ໂທ	-7965
omas	-7966
▁စစ်	-7967
une	-7968
ເພງ	-7969
oloh	-7970
▁meeting	-7971
▁1:	-7972
burg	-7973
▁pot	-7974
▁tre	-7975
▁nais	-7976
▁ilalim	-7977
ညှ	-7978
日の	-7979
次の	-7980
ជោគ	-7981
bang	-7982
ប្រាំ	-7983
▁James	-7984
▁Trans	-7985
動物	-7986
Man	-7987
ព្ទ	-7988
="3.	-7989
▁explain	-7990
家に	-7991
ຄາມ	-7992
န္တ	-7993
ince	-7994
▁ord	-7995
Kailangan	-7996
ຈັນ	-7997
ັ້ມ	-7998
▁Was	-7999
ပါပြီ	-8000
ယမ်	-8001
▁himself	-8002
▁USD	-8003
နိုင်ပါသည်။	-8004
បច្ចេកវិទ្យ	-8005
39	-8006
▁surv	-8007
▁makakuha	-8008
ດູ	-8009
ດາວ	-8010
ສັງ	-8011
ຢາມ	-8012
သမျှ	-8013
▁design	-8014
▁ຈໍານວນ	-8015
▁ဒါမှမဟုတ်	-8016
ចំណាយ	-8017
▁boss	-8018
ກໍລະນີ	-8019
Sp	-8020
ຮ້ອນ	-8021
ឈ្នះ	-8022
▁stat	-8023
プロジェクト	-8024
▁single	-8025
ze	-8026
自由	-8027
そこに	-8028
ໂນໂລ	-8029
▁join	-8030
▁မြင်	-8031
ແມ່ນວ່າ	-8032
▁gentle	-8033
ຈມ	-8034
ໂຍ	-8035
ヶ月	-8036
▁အစ	-8037
▁lie	-8038
ជាការ	-8039
ថ្មីៗ	-8040
▁worked	-8041
5%	-8042
່ຽງ	-8043
ミュニ	-8044
言って	-8045
▁ခင်	-8046
arito	-8047
အစည်း	-8048
မောင်း	-8049
ປົກກະຕິ	-8050
ဖြစ်သည်။	-8051
"?	-8052
BC	-8053
してみ	-8054
do	-8055
れます	-8056
ងាយស្រួល	-8057
作品	-8058
願い	-8059
コミュニ	-8060
ຂອງມັນ	-8061
ugin	-8062
▁program	-8063
olf	-8064
ສະພາບ	-8065
▁ບໍ່ມີ	-8066
46	-8067
▁sand	-8068
အက	-8069
俺の	-8070
ことで	-8071
▁Mat	-8072
▁phot	-8073
ជោគជ័យ	-8074
一番	-8075
izz	-8076
ເຕັມ	-8077
シン	-8078
来る	-8079
▁កម្	-8080
▁pinag	-8081
世紀	-8082
とする	-8083
面白	-8084
▁Tourism	-8085
អ្នកដំណើរ	-8086
ພໍ່	-8087
eral	-8088
ကင်း	-8089
▁Out	-8090
alaxy	-8091
តំណាង	-8092
▁model	-8093
続け	-8094
▁Sl	-8095
くない	-8096
ulit	-8097
ໃນໄລຍະ	-8098
▁group	-8099
ເປັນຫຍັງ	-8100
ປະກາດ	-8101
ဘယ်လို	-8102
▁ອາຍຸ	-8103
ပိုပြီး	-8104
រមណីយដ្ឋាន	-8105
arch	-8106
▁catch	-8107
ຽກ	-8108
▁オ	-8109
君が	-8110
▁prison	-8111
ky	-8112
▁僕	-8113
ຂ່າຍ	-8114
តែមួយ	-8115
▁ຫນັກ	-8116
▁track	-8117
ラス	-8118
ဝါး	-8119
▁ເຫດ	-8120
ທຸກຄົນ	-8121
死んだ	-8122
▁wed	-8123
ប្រជា	-8124
ead	-8125
ຢ້ຽມ	-8126
ဇင်း	-8127
ກໍານົດ	-8128
កម្ពស់	-8129
ပြုလုပ်	-8130
インド	-8131
遺伝子	-8132
▁spend	-8133
ကာလ	-8134
できた	-8135
အရွယ်အစား	-8136
bus	-8137
ply	-8138
ဝါရီ	-8139
▁とても	-8140
▁North	-8141
ាប៊ីសាអូឌីត	-8142
やす	-8143
ហារ	-8144
▁ra	-8145
▁rid	-8146
အဘို့အ	-8147
▁Airl	-8148
▁white	-8149
ဖြစ်နိုင်	-8150
をつ	-8151
ຍາວ	-8152
ຍິນ	-8153
usalem	-8154
ລັກສະນະ	-8155
▁ແທ	-8156
したの	-8157
obile	-8158
ရောက်မှု	-8159
▁serbisyo	-8160
ລຸ	-8161
せて	-8162
▁disapp	-8163
▁Pet	-8164
▁ban	-8165
▁ខែក	-8166
ສິນຄ້າ	-8167
▁birthday	-8168
かを	-8169
လစ်	-8170
နွေး	-8171
に対して	-8172
▁រួមទាំង	-8173
ခဲ့ပြီး	-8174
ຫນ້າທໍາອິດ	-8175
၀၀	-8176
ອາຊີ	-8177
aging	-8178
ប្រជាជន	-8179
▁normal	-8180
太陽	-8181
▁31	-8182
▁Str	-8183
ອຸດສາຫະ	-8184
▁tatlong	-8185
▁coffee	-8186
နပ်	-8187
ສະບັບ	-8188
ាន់តែ	-8189
uation	-8190
▁third	-8191
全員	-8192
▁ple	-8193
ជំនួយ	-8194
លក្ខណៈពិសេស	-8195
ិទ	-8196
ッチ	-8197
ກໍ່ສ້າງ	-8198
igr	-8199
oub	-8200
▁..	-8201
▁Comp	-8202
ອອກຈາກ	-8203
ັກໂນໂລ	-8204
ukasyon	-8205
ໃນເດືອນ	-8206
▁parang	-8207
▁ແລະອື່ນໆ	-8208
agat	-8209
▁contact	-8210
IF	-8211
တား	-8212
ាក្យ	-8213
▁Pay	-8214
လေ။	-8215
▁cat	-8216
ရှာဖွေ	-8217
▁gayon	-8218
▁pananaliksik	-8219
準備	-8220
ເຮືອ	-8221
▁ကြီး	-8222
တွေမှာ	-8223
သင်တန်း	-8224
子ども	-8225
vent	-8226
ຫວັງ	-8227
▁Brit	-8228
▁dev	-8229
▁Forex	-8230
▁Jo	-8231
ភ្លើង	-8232
▁park	-8233
ກິ	-8234
ຈົນ	-8235
があった	-8236
ដ៏ល្អ	-8237
▁bata	-8238
4)	-8239
uang	-8240
ເທື່ອ	-8241
ស្លាក	-8242
ສະຫນັບສະຫນູນ	-8243
のお	-8244
ង្វ	-8245
ຂ້ອງ	-8246
ဆိုး	-8247
asure	-8248
oster	-8249
ota	-8250
rec	-8251
▁ပါ	-8252
完全	-8253
ເຫນີ	-8254
ထံမှ	-8255
အခြေခံ	-8256
ໂອກາດ	-8257
▁across	-8258
ທາງເລືອກ	-8259
▁natural	-8260
្នៃ	-8261
▁5.	-8262
បម្រ	-8263
ິຖຸນາ	-8264
▁ຄືນ	-8265
ບັນທຶກ	-8266
គុណភាព	-8267
irc	-8268
អ្វីដែល	-8269
မျက်နှာပြင်	-8270
見た	-8271
bers	-8272
▁magandang	-8273
▁ပထမ	-8274
ັງກອນ	-8275
▁George	-8276
BI	-8277
ゲーム	-8278
▁ນັບ	-8279
ခြောက်	-8280
ပညာရှင်	-8281
り返	-8282
រក្ស	-8283
▁[...	-8284
▁maliit	-8285
学者	-8286
ច្ឆ	-8287
▁Jerusalem	-8288
▁partic	-8289
ဆန်း	-8290
▁တွေ့	-8291
▁သင့်	-8292
ທ່ອງທ່ຽວ	-8293
aven	-8294
ឯកជន	-8295
▁To	-8296
urch	-8297
ແບ່ງ	-8298
ရှိတဲ့	-8299
ប្រហែល	-8300
ស៊ូស៊ី	-8301
▁super	-8302
ກາຍເປັນ	-8303
ສະຫມ	-8304
▁kasal	-8305
68	-8306
ွန်း	-8307
ander	-8308
▁glad	-8309
▁ရုပ်	-8310
ຜ່ອນ	-8311
▁Sch	-8312
rench	-8313
▁အဘယ်	-8314
▁public	-8315
逃げ	-8316
▁ရာ	-8317
ကြို	-8318
▁ເປີດ	-8319
▁私たちは	-8320
▁rather	-8321
▁လေ့	-8322
တုန်း	-8323
အရောင်	-8324
▁early	-8325
yayari	-8326
សប្តាហ៍	-8327
uts	-8328
Lahat	-8329
▁support	-8330
セン	-8331
အရေ	-8332
▁ຕິ	-8333
▁Max	-8334
▁USB	-8335
ဘီ	-8336
▁ຊາວ	-8337
▁Amazon	-8338
神経	-8339
ayong	-8340
▁laug	-8341
▁sist	-8342
もあります	-8343
▁crypto	-8344
uto	-8345
▁ငွေ	-8346
▁ປະຕິ	-8347
▁moving	-8348
ဖောက်သည်	-8349
ダメ	-8350
ataon	-8351
imate	-8352
ກັບການ	-8353
ilya	-8354
ພິເສດ	-8355
ស័	-8356
las	-8357
ພາດ	-8358
▁ca	-8359
▁နံ	-8360
redit	-8361
▁road	-8362
▁ຫ້ອງ	-8363
▁ແມ່ນຫຍັງ	-8364
達は	-8365
မန်	-8366
ຕະຖານ	-8367
គ្រួសារ	-8368
ព្រមព្រ	-8369
▁ご	-8370
គាល់	-8371
alamat	-8372
ព្រមព្រៀង	-8373
▁သေ	-8374
တိယ	-8375
ភាពជា	-8376
▁thous	-8377
មជ្ឈមណ្ឌល	-8378
េរី	-8379
▁ພິ	-8380
▁Des	-8381
▁eye	-8382
ໂຮງຮຽນ	-8383
▁ແລະການ	-8384
ij	-8385
utin	-8386
ຍິ່ງ	-8387
▁tur	-8388
រំពឹង	-8389
alahat	-8390
▁ເທື່ອ	-8391
▁''	-8392
ကျယ်	-8393
အလေး	-8394
▁Lou	-8395
▁pab	-8396
▁breat	-8397
▁ခင်ဗျား	-8398
သန	-8399
conom	-8400
uno	-8401
orta	-8402
▁Net	-8403
▁កិច្ច	-8404
CC	-8405
ចេញពី	-8406
▁ກໍາລັງ	-8407
គេហទំព័រ	-8408
テクノ	-8409
ahayag	-8410
▁machine	-8411
နောက်တစ်ခု	-8412
ခါး	-8413
▁ここ	-8414
▁Filter	-8415
▁စက်မှု	-8416
いろ	-8417
と言う	-8418
atili	-8419
ជីព	-8420
▁Day	-8421
インター	-8422
ເສີມ	-8423
▁စနစ်	-8424
undred	-8425
▁သင့်ရဲ့	-8426
▁ເອີ	-8427
အများကြီး	-8428
net	-8429
asama	-8430
▁buwan	-8431
ទេសចរណ៍ពិភពលោក	-8432
マイ	-8433
iyo	-8434
▁cho	-8435
တဆင့်	-8436
▁shop	-8437
ກ່າວວ່າ	-8438
Nak	-8439
ស្នាក់	-8440
လက်မှတ်	-8441
▁engine	-8442
ວີ	-8443
အခု	-8444
king	-8445
▁eks	-8446
▁esc	-8447
▁vict	-8448
ច្នៃ	-8449
▁DNA	-8450
参加	-8451
長い	-8452
▁HD	-8453
▁ບັດ	-8454
unayan	-8455
រុស្ស៊ី	-8456
アー	-8457
lam	-8458
lect	-8459
မြစ်	-8460
▁nagh	-8461
▁pagkain	-8462
うま	-8463
▁artik	-8464
ជាមួយនឹងការ	-8465
▁Soc	-8466
ເອີຣົບ	-8467
ບຕໍ່	-8468
▁gas	-8469
テクノロ	-8470
ຄືກັນ	-8471
တောက်	-8472
▁ដូច្នេះ	-8473
ida	-8474
▁ນິ	-8475
បញ្ហា	-8476
▁Port	-8477
▁worth	-8478
ផ្ទាល់ខ្លួន	-8479
▁2:	-8480
▁195	-8481
いている	-8482
Dahil	-8483
awang	-8484
▁English	-8485
bol	-8486
met	-8487
ະນໍາ	-8488
ពិន្ទុ	-8489
▁ປະມານ	-8490
▁National	-8491
聞こ	-8492
▁main	-8493
berg	-8494
rent	-8495
▁ສົ່ງ	-8496
ထောက်ပံ့	-8497
အမေရိကန်	-8498
ခဲ့ပါတယ်။	-8499
ສິ	-8500
ញ្ច	-8501
សង្គម	-8502
▁Canada	-8503
bor	-8504
ຝຶກ	-8505
ເກົ່າ	-8506
▁star	-8507
▁using	-8508
ກົດຫມາຍ	-8509
ສາກົນ	-8510
ແນະ	-8511
▁san	-8512
adies	-8513
ample	-8514
▁song	-8515
ကျောက်	-8516
ສັ່ງ	-8517
ស្ថិត	-8518
ចល	-8519
▁choice	-8520
▁ina	-8521
▁ones	-8522
▁thanks	-8523
▁Michael	-8524
▁apartment	-8525
ourn	-8526
ချစ်	-8527
ສັງຄົມ	-8528
တောင်း	-8529
មែន	-8530
ique	-8531
រក្សា	-8532
បង្ហាញពី	-8533
▁ဒါကြောင့်	-8534
彼らが	-8535
ຫຼັງ	-8536
តាលី	-8537
▁Sec	-8538
ໄຟຟ້າ	-8539
အကြုံ	-8540
▁စျေး	-8541
ເຄື່ອນ	-8542
▁telep	-8543
▁ginagamit	-8544
▁ຂອງພວກເຮົາ	-8545
▁ຕະ	-8546
င်္ဂ	-8547
れている	-8548
ຮ່າງກາຍ	-8549
▁Christmas	-8550
នាម	-8551
ティー	-8552
▁squ	-8553
▁requ	-8554
▁polit	-8555
▁kinakailangan	-8556
cur	-8557
នាយក	-8558
ှနျုပျ	-8559
ໃຫ້ທ່ານ	-8560
目を	-8561
ogn	-8562
ものは	-8563
を作り	-8564
ပိတ်	-8565
အဓိက	-8566
បាល់	-8567
ilian	-8568
▁drop	-8569
したのです	-8570
ຮຽນຮູ້	-8571
နံပါတ်	-8572
▁needed	-8573
▁calling	-8574
មិត្ត	-8575
▁amazing	-8576
uns	-8577
ថានឹង	-8578
▁ប្រជាជន	-8579
▁sumusunod	-8580
ထုပ်	-8581
▁Jim	-8582
amatay	-8583
▁Casino	-8584
ဆရာ	-8585
▁sat	-8586
▁Char	-8587
▁fool	-8588
▁government	-8589
年代	-8590
ured	-8591
▁အခု	-8592
における	-8593
に関する	-8594
inger	-8595
全部	-8596
開発	-8597
erd	-8598
មុខគេ	-8599
さあ	-8600
▁ຕົ້ນ	-8601
一つ	-8602
ford	-8603
irap	-8604
▁Dev	-8605
▁သက်	-8606
どうして	-8607
တွေ့အကြုံ	-8608
ခင်း	-8609
▁それが	-8610
ផ្តោត	-8611
▁finally	-8612
អែល	-8613
▁paaralan	-8614
▁手	-8615
彼を	-8616
反応	-8617
▁また	-8618
amot	-8619
Me	-8620
တော	-8621
ungs	-8622
▁sens	-8623
69	-8624
aves	-8625
▁2000	-8626
alakbay	-8627
▁patient	-8628
ແຜ່ນ	-8629
▁ပြည်	-8630
▁piece	-8631
コンピュータ	-8632
AY	-8633
ាកដ	-8634
အသေး	-8635
ែត្រ	-8636
▁scr	-8637
ທີ່ຢູ່	-8638
▁៣	-8639
ហាស	-8640
ったり	-8641
ချိုး	-8642
ប្រសើរ	-8643
▁ト	-8644
中国	-8645
規模	-8646
▁seeing	-8647
かけて	-8648
aged	-8649
▁Lib	-8650
alian	-8651
itive	-8652
cm	-8653
▁数	-8654
မင်း	-8655
arget	-8656
តាំងពី	-8657
▁kaysa	-8658
ទឹកចិត្ត	-8659
歳の	-8660
知ってる	-8661
▁ibig	-8662
▁decided	-8663
▁malaman	-8664
អ្នកជំនាញ	-8665
SS	-8666
រវាង	-8667
▁Int	-8668
▁THE	-8669
▁mic	-8670
គម្រោង	-8671
trabaho	-8672
ປ້ອງກັນ	-8673
▁numero	-8674
ຣິ	-8675
រាល់	-8676
ບຸກຄົນ	-8677
នៅពេលដែល	-8678
now	-8679
ារ៉	-8680
▁ຈັດ	-8681
ចំណែក	-8682
▁ありがとう	-8683
▁mayroon	-8684
ខំ	-8685
Dad	-8686
ກັດ	-8687
តូច	-8688
▁နာရီ	-8689
ទទួលស្គាល់	-8690
▁お前	-8691
▁Cast	-8692
ច្បាប់	-8693
▁ທ່ານຈະ	-8694
အခွ	-8695
iran	-8696
▁ve	-8697
すぐに	-8698
າກອນ	-8699
Breaking	-8700
▁思	-8701
con	-8702
ស័ព្ទ	-8703
ທີ່ໄດ້	-8704
進化	-8705
▁Take	-8706
▁ကျော်	-8707
ធម្មជាតិ	-8708
▁pagkakataon	-8709
▁”	-8710
方を	-8711
死ぬ	-8712
nie	-8713
▁3,	-8714
erve	-8715
▁present	-8716
▁ຊາດ	-8717
សំខាន់ៗ	-8718
▁careful	-8719
အများဆုံး	-8720
ភ្នំ	-8721
▁ເຂດ	-8722
出し	-8723
hou	-8724
သူ့	-8725
ទាន	-8726
プログラ	-8727
itute	-8728
▁given	-8729
ກ່ຽວກັບການ	-8730
レス	-8731
urs	-8732
ທຽບ	-8733
ຖືກຕ້ອງ	-8734
ibl	-8735
▁Jul	-8736
လွယ်ကူ	-8737
▁Franc	-8738
▁marami	-8739
年前	-8740
▁Sir	-8741
ផ្គត់	-8742
▁sometimes	-8743
ដែលត្រូវបាន	-8744
ພູມ	-8745
最初の	-8746
を持って	-8747
obody	-8748
ကတော့	-8749
ផ្គង់	-8750
▁Card	-8751
▁dance	-8752
▁Airlines	-8753
ផ្គត់ផ្គង់	-8754
ប៊ី	-8755
▁div	-8756
ibang	-8757
▁ten	-8758
いくつか	-8759
▁Gold	-8760
▁fear	-8761
▁works	-8762
CO	-8763
van	-8764
ປິດ	-8765
រុប	-8766
▁nobody	-8767
နှင့်အတူ	-8768
တျ	-8769
ເກີນ	-8770
▁Mor	-8771
ສຸຂະພາບ	-8772
ភៅ	-8773
ພິວ	-8774
▁ຂໍ	-8775
ເຂົ້າໃຈ	-8776
▁ပစ္စည်း	-8777
▁nagkaroon	-8778
▁nakak	-8779
▁ເຮັດໃຫ້	-8780
មធ្យម	-8781
▁နား	-8782
ပြဿနာ	-8783
▁beat	-8784
どうやって	-8785
အတိုင်း	-8786
ဟု	-8787
▁រដ្ឋ	-8788
▁setting	-8789
ຈິກ	-8790
ຊົມ	-8791
必要な	-8792
ពន្ធ	-8793
អរ	-8794
ulay	-8795
opt	-8796
▁ກິ	-8797
われた	-8798
ានេះ	-8799
ແຍ	-8800
ທີມ	-8801
ປະສິດທິ	-8802
ឥតគិតថ្លៃ	-8803
Um	-8804
ឌិត	-8805
ジョン	-8806
▁non	-8807
aalok	-8808
デオ	-8809
ຢ່າ	-8810
ຄ້າຍ	-8811
▁Code	-8812
▁window	-8813
lor	-8814
ເຈັບ	-8815
ເຜີຍ	-8816
ampok	-8817
ប្រឌិត	-8818
▁Breaking	-8819
ຕູ	-8820
០០	-8821
▁ຖະ	-8822
cher	-8823
မွေး	-8824
▁date	-8825
ជនជាតិ	-8826
ຫນ້າທີ່	-8827
ແຫ່ງຊາດ	-8828
ပေါ်တွင်	-8829
44	-8830
တဦး	-8831
aine	-8832
undi	-8833
va	-8834
彼女が	-8835
ដ៏សំខាន់	-8836
ラー	-8837
▁Bo	-8838
gawa	-8839
▁host	-8840
ກ່ຽວຂ້ອງ	-8841
ເສດຖະກິດ	-8842
▁somewhere	-8843
ki	-8844
母親	-8845
の問題	-8846
▁ideya	-8847
新た	-8848
erry	-8849
ກໍ່ຕາມ	-8850
eed	-8851
ពាក្យ	-8852
▁rock	-8853
icks	-8854
ແລະຄວາມ	-8855
らか	-8856
体を	-8857
▁ຍ້ອນ	-8858
▁kabilang	-8859
ບຽນ	-8860
の中に	-8861
စီနို	-8862
かもしれない	-8863
ဝန်းကျင်	-8864
▁pangk	-8865
Nothing	-8866
▁application	-8867
ທະເລ	-8868
េជ្ញ	-8869
▁ເລີ່ມ	-8870
▁girlfriend	-8871
bert	-8872
▁smell	-8873
Put	-8874
Was	-8875
ຂົນ	-8876
ສະດ	-8877
ကြွ	-8878
ແຈ້ງ	-8879
▁visit	-8880
ណ្យ	-8881
▁Pal	-8882
បុណ្យ	-8883
iwanag	-8884
អំឡុងពេល	-8885
▁experience	-8886
▁ww	-8887
▁ຄວນ	-8888
ahagi	-8889
uturo	-8890
ຮູ້ສຶກ	-8891
ဝဲ	-8892
まま	-8893
▁より	-8894
save	-8895
ຍ້ອນ	-8896
▁lub	-8897
▁roll	-8898
ລື	-8899
ີກ	-8900
人も	-8901
mar	-8902
រាប់	-8903
▁obs	-8904
ເກືອບ	-8905
ပျူတာ	-8906
ិះ	-8907
ាវ៉	-8908
▁そんな	-8909
▁limit	-8910
▁weird	-8911
▁និងជា	-8912
ဗီဒီယို	-8913
▁history	-8914
それから	-8915
acter	-8916
ຮູ້ຈັກ	-8917
▁ibab	-8918
ប្រាកដ	-8919
▁cookies	-8920
されます	-8921
▁Bank	-8922
ເປັນເວລາ	-8923
▁www	-8924
▁ແນວ	-8925
ဖို	-8926
ဖြစ်လာ	-8927
▁negosyo	-8928
ແວ	-8929
患者	-8930
ຄົງ	-8931
ピー	-8932
ນາຍ	-8933
▁Na	-8934
atang	-8935
できません	-8936
▁Airways	-8937
▁wedding	-8938
បន្ថែមទៀត	-8939
Fi	-8940
意識	-8941
世界の	-8942
terday	-8943
gg	-8944
ສູດ	-8945
待って	-8946
そうです	-8947
នាពេល	-8948
សមាគម	-8949
▁bott	-8950
▁fail	-8951
မျှော်လ	-8952
ប្រសិនបើ	-8953
របស់អ្នក។	-8954
ရု	-8955
物質	-8956
ede	-8957
ຫນັກ	-8958
ニューヨ	-8959
້າສຸດ	-8960
▁feet	-8961
▁System	-8962
▁hundred	-8963
arn	-8964
▁sistema	-8965
機械	-8966
alas	-8967
▁age	-8968
▁pul	-8969
▁ຕອນ	-8970
ပုဂ္ဂ	-8971
▁area	-8972
▁takes	-8973
▁Thanks	-8974
ビー	-8975
back	-8976
time	-8977
នៅតែ	-8978
ဒါကို	-8979
▁Here	-8980
uwal	-8981
▁log	-8982
見せ	-8983
▁Er	-8984
▁250	-8985
▁prov	-8986
▁rece	-8987
▁Street	-8988
ategorya	-8989
うん	-8990
方は	-8991
病院	-8992
過ぎ	-8993
Sir	-8994
iday	-8995
▁ສົນ	-8996
▁သူမ	-8997
uthor	-8998
▁ພົບ	-8999
ဒေါင်း	-9000
▁movie	-9001
សម្គាល់	-9002
りを	-9003
yle	-9004
モデル	-9005
ucks	-9006
သလို	-9007
ぞれ	-9008
ពុជា	-9009
▁exp	-9010
pin	-9011
put	-9012
အစာ	-9013
▁4,	-9014
ាតត្ប	-9015
▁clot	-9016
▁Charl	-9017
mon	-9018
ເຫລ	-9019
မက်	-9020
▁တွေ	-9021
သတ္တု	-9022
မြှင့်	-9023
▁throw	-9024
▁ເຫນືອ	-9025
ດ້ານການ	-9026
ាតត្បាត	-9027
Hal	-9028
▁ສື	-9029
ម៉ង់	-9030
▁hop	-9031
▁ບົດ	-9032
ມັນແມ່ນ	-9033
ຊ່ວຍເຫຼືອ	-9034
▁straight	-9035
エン	-9036
ធ្ង	-9037
inaw	-9038
Which	-9039
▁magt	-9040
ដោយសារ	-9041
លើកទឹកចិត្ត	-9042
人々が	-9043
▁ຮ່ວມ	-9044
ប្តេជ្ញ	-9045
▁profess	-9046
話す	-9047
oph	-9048
ahit	-9049
ຄະນະ	-9050
ataas	-9051
များက	-9052
រាតត្បាត	-9053
▁人	-9054
ရုံး	-9055
▁effect	-9056
Kaya	-9057
ored	-9058
ထွင်	-9059
わかった	-9060
ធានា	-9061
▁puso	-9062
LE	-9063
を取	-9064
အလျ	-9065
ရောဂါ	-9066
bl	-9067
ຕາຍ	-9068
ບູນ	-9069
ສະຫະ	-9070
▁Fin	-9071
ណ្ឌិត	-9072
▁weren	-9073
▁Online	-9074
ຜົນກະທົບ	-9075
osc	-9076
ထည့်	-9077
▁ISO	-9078
ပါပဲ။	-9079
▁ທົ່ວ	-9080
▁မြို့	-9081
icult	-9082
inary	-9083
▁floor	-9084
▁sakit	-9085
TH	-9086
ိန့်	-9087
ອັນດັບ	-9088
ားရှင်း	-9089
လှုပ်ရှား	-9090
kg	-9091
機会	-9092
မှူး	-9093
▁ຈຶ່ງ	-9094
▁အရေး	-9095
bon	-9096
wood	-9097
▁lok	-9098
▁ຄິດ	-9099
ារី	-9100
ario	-9101
▁もっと	-9102
အကြား	-9103
ច្នៃប្រឌិត	-9104
▁da	-9105
သုတေ	-9106
▁ພາບ	-9107
၎င်း၏	-9108
ဖြစ်စေ	-9109
6,	-9110
タン	-9111
ることを	-9112
အမြင်	-9113
▁deep	-9114
必要があります	-9115
II	-9116
▁×	-9117
សាង	-9118
▁Met	-9119
vered	-9120
ຈັດການ	-9121
分の	-9122
een	-9123
と呼ば	-9124
いの	-9125
一度	-9126
ທະບຽນ	-9127
ាស៊ីន	-9128
▁turned	-9129
▁Internet	-9130
提供	-9131
▁ຊາ	-9132
▁Big	-9133
▁Bro	-9134
အခွန်	-9135
កិច្ចប្រជុំ	-9136
ကျွန်ုပ်တို့၏	-9137
▁nal	-9138
owser	-9139
အာရုံ	-9140
生み	-9141
နှံ	-9142
លទ្ធ	-9143
▁Hel	-9144
▁ຈິງ	-9145
▁fault	-9146
ເທົ່ານັ້ນ	-9147
ລົບ	-9148
អាន	-9149
るのです	-9150
ပါအဝင်	-9151
▁Peter	-9152
ပေးသွင်း	-9153
▁karamihan	-9154
pa	-9155
を守	-9156
ဘေး	-9157
▁ໂຕ	-9158
お前は	-9159
tract	-9160
▁ຫນັງ	-9161
ទទួលខុសត្រូវ	-9162
とした	-9163
ループ	-9164
ທາລະ	-9165
▁Bob	-9166
aker	-9167
▁pera	-9168
▁នៅលើ	-9169
りたい	-9170
を見た	-9171
▁Sil	-9172
運動	-9173
▁murder	-9174
ក្រសួងទេសចរណ៍	-9175
Fr	-9176
楽し	-9177
記憶	-9178
▁ទោះ	-9179
▁fair	-9180
ຄວາມໄວ	-9181
အစီအစဉ်	-9182
▁giving	-9183
ເອີ້ນວ່າ	-9184
ນໍ້າ	-9185
ទីនេះ	-9186
▁ງ	-9187
メラ	-9188
事実	-9189
基本	-9190
ien	-9191
分かった	-9192
ទៅក្នុង	-9193
▁psych	-9194
Ab	-9195
ថ្លែង	-9196
▁Mary	-9197
អនុញ្ញាតឱ្យ	-9198
dr	-9199
▁ဧ	-9200
iest	-9201
▁DVD	-9202
▁sam	-9203
anyang	-9204
កា	-9205
最高	-9206
vey	-9207
エネルギー	-9208
ရရှိနိုင်	-9209
▁halos	-9210
▁message	-9211
អារ៉ាប៊ីសាអូឌីត	-9212
記録	-9213
ထိပ်	-9214
ksyon	-9215
ຮ່ວມມື	-9216
▁device	-9217
aph	-9218
▁ແດ	-9219
▁mult	-9220
မြောက်	-9221
▁nakal	-9222
▁state	-9223
▁ភាគរយ	-9224
By	-9225
ោរ	-9226
入れ	-9227
ချင်းစီ	-9228
▁ကျောင်း	-9229
まさ	-9230
ຕະລ	-9231
ploy	-9232
▁ប្រស	-9233
Two	-9234
bye	-9235
atap	-9236
អគ្គ	-9237
すべての	-9238
ຮູ້ວ່າ	-9239
ໄກ	-9240
▁ត	-9241
ရှုံး	-9242
ចាប់ពី	-9243
ភពអង់គ្លេស	-9244
SD	-9245
▁Bel	-9246
▁mis	-9247
ອັດຕາ	-9248
ຢ່າງໃດ	-9249
AG	-9250
ယူး	-9251
7,	-9252
▁な	-9253
スク	-9254
どのように	-9255
curren	-9256
ປະຫວັດ	-9257
▁Samsung	-9258
ရမ်	-9259
ases	-9260
ថាជា	-9261
ences	-9262
▁feed	-9263
当時	-9264
ថាម	-9265
▁seg	-9266
▁PATA	-9267
ពង្រីក	-9268
တယ်လို့	-9269
▁happening	-9270
シア	-9271
▁Lord	-9272
នឹងការ	-9273
တစ်ယောက်	-9274
ត្រូវការ	-9275
▁သာ	-9276
abot	-9277
away	-9278
▁inf	-9279
ໃຊ້ຈ່າຍ	-9280
▁indust	-9281
の話	-9282
မိုး	-9283
Could	-9284
ໂດຍການ	-9285
ຫຼາຍກ່ວາ	-9286
យ៉ាងខ្លាំង	-9287
ibly	-9288
▁တိုက်	-9289
ພະນັກງານ	-9290
▁វិស័យទេសចរណ៍	-9291
▁(5	-9292
▁built	-9293
▁kumpanya	-9294
័ស	-9295
ရာယ်	-9296
ເຫດຜົນ	-9297
▁table	-9298
ပါလိမ့်မယ်	-9299
ml	-9300
ລ໌	-9301
ပျံ	-9302
がありました	-9303
▁minuto	-9304
精神	-9305
បំប	-9306
▁まだ	-9307
Nang	-9308
▁enjoy	-9309
alaking	-9310
▁ប្រជាជនក្នុងការ	-9311
間違	-9312
Pin	-9313
ດານ	-9314
ຄຸ້ມ	-9315
▁gagawin	-9316
▁ປະທານາທິບໍດີ	-9317
の上	-9318
目的	-9319
▁សហ	-9320
John	-9321
အချို့	-9322
▁pract	-9323
チェ	-9324
ີ້ມ	-9325
abag	-9326
တည်ဆောက်	-9327
ລ້	-9328
すごい	-9329
▁mob	-9330
မားတဲ့	-9331
▁00	-9332
▁ပု	-9333
あんた	-9334
otoh	-9335
▁Part	-9336
▁conv	-9337
▁ຫມັ້ນ	-9338
ination	-9339
▁စီ	-9340
父さん	-9341
iers	-9342
するのは	-9343
▁အရည်	-9344
រហូតដល់	-9345
နိုင်တဲ့	-9346
▁nangyari	-9347
សាកលវិទ្យាល័យ	-9348
່ຍ	-9349
キー	-9350
一人	-9351
ora	-9352
rat	-9353
ဆယ်	-9354
▁何か	-9355
olohiya	-9356
ママ	-9357
▁Wi	-9358
となる	-9359
agon	-9360
ument	-9361
▁ບັນດາ	-9362
ຖ່າຍ	-9363
▁aff	-9364
▁hid	-9365
ကြိမ်	-9366
အပြား	-9367
គាត់បាន	-9368
難しい	-9369
▁paper	-9370
ក្នុងចំណោម	-9371
▁Abr	-9372
▁pet	-9373
ပြည့်	-9374
ယုံကြည်	-9375
အမျိုးမျိုး	-9376
yer	-9377
ສະຖ	-9378
知らない	-9379
First	-9380
alaan	-9381
astos	-9382
အကြီး	-9383
▁Para	-9384
▁draw	-9385
始めました	-9386
ាន់លាន	-9387
▁Airbus	-9388
ဆုံးဖြတ်	-9389
ပါက	-9390
ຸມພາ	-9391
ຫຼີ້ນ	-9392
ູ້ນໍາ	-9393
▁hung	-9394
▁ກໍລະ	-9395
ពេលវេលា	-9396
▁teacher	-9397
ပထမဦးဆုံး	-9398
ພົນ	-9399
ales	-9400
▁appro	-9401
▁tulong	-9402
ក្នុងមួយ	-9403
បង្កើតឡើង	-9404
惑星	-9405
為に	-9406
ស្ទ	-9407
ມະຫາ	-9408
▁တည်	-9409
iforn	-9410
▁suff	-9411
手に	-9412
ahi	-9413
ken	-9414
ပန်	-9415
illa	-9416
របស់នាង	-9417
▁Hi	-9418
▁Je	-9419
▁Rich	-9420
▁share	-9421
▁voice	-9422
▁အလင်း	-9423
ys	-9424
▁hero	-9425
itness	-9426
▁不	-9427
កត់	-9428
▁ໄຟ	-9429
のでしょうか	-9430
ခန့်ခွဲ	-9431
ស្ប	-9432
▁ກາ	-9433
仕事を	-9434
လား။	-9435
ក្តៅ	-9436
▁Wall	-9437
ຶດສະພາ	-9438
ផែនការ	-9439
ភ្នាក់	-9440
iniwala	-9441
န္တရာယ်	-9442
▁ບໍລິສັດ	-9443
ភ្នាក់ងារ	-9444
ណូ	-9445
ិរ	-9446
おい	-9447
asc	-9448
▁Set	-9449
▁ド	-9450
ຈະມີ	-9451
▁FSX	-9452
អាជីព	-9453
ဒေါ်လာ	-9454
ima	-9455
အလှ	-9456
ກ້າວ	-9457
Press	-9458
chell	-9459
oseso	-9460
▁နေရာ	-9461
はありません	-9462
angyarihan	-9463
row	-9464
ဓါတ်	-9465
▁gaw	-9466
▁ຍິງ	-9467
▁poor	-9468
責任	-9469
▁talked	-9470
▁ပြီးတော့	-9471
調べ	-9472
▁rese	-9473
▁Europa	-9474
ကျွန်တော်	-9475
ござ	-9476
ទូលាយ	-9477
សាសន៍	-9478
စာအုပ်	-9479
ທີ່ມີຄວາມ	-9480
ូរ៉	-9481
の人が	-9482
Fuck	-9483
▁Luc	-9484
នេះបាន	-9485
▁marry	-9486
ニューヨーク	-9487
▁Galaxy	-9488
အသိ	-9489
きたい	-9490
▁asawa	-9491
ifornia	-9492
ຂໍ້ຄວາມ	-9493
ທີ່ແຕກຕ່າງກັນ	-9494
ໂກ	-9495
一方	-9496
လင်	-9497
ຫນັງ	-9498
ロン	-9499
ឡង់	-9500
ທະຫານ	-9501
▁tick	-9502
ww	-9503
最近	-9504
ရောပ	-9505
▁10.	-9506
▁ပန်း	-9507
erence	-9508
携帯	-9509
ခြံ	-9510
agana	-9511
▁ထို့	-9512
Ad	-9513
▁言	-9514
動き	-9515
jor	-9516
န္ဓာ	-9517
kr	-9518
紹介	-9519
kta	-9520
ອະທິ	-9521
▁kuw	-9522
▁meant	-9523
▁security	-9524
幸せ	-9525
能力	-9526
▁Mod	-9527
▁သွား	-9528
▁Super	-9529
あげ	-9530
はどこ	-9531
ビデオ	-9532
ຮ້ານ	-9533
▁till	-9534
▁ປະຊາຊົນ	-9535
ilit	-9536
▁born	-9537
▁Every	-9538
▁Valve	-9539
▁lucky	-9540
របស់ខ្ញុំ	-9541
43	-9542
cer	-9543
ໄຫວ	-9544
▁hey	-9545
ອີງຕາມ	-9546
▁media	-9547
စုပေါင်း	-9548
DC	-9549
តិច	-9550
ហូប	-9551
ິງຫາ	-9552
អាចរ	-9553
▁busy	-9554
▁prof	-9555
家の	-9556
ផ្លូវការ	-9557
▁wonderful	-9558
သတင်းအချက်အလက်	-9559
uku	-9560
ຊານ	-9561
រីក	-9562
Next	-9563
▁dro	-9564
▁nakikita	-9565
▁completely	-9566
ယှ	-9567
間の	-9568
ဟို	-9569
អំណ	-9570
リック	-9571
រំលែក	-9572
▁ເທົ່າ	-9573
▁ဖန်တီး	-9574
.,	-9575
TN	-9576
ຢຸດ	-9577
あった	-9578
အမှု	-9579
▁bath	-9580
arating	-9581
▁interesting	-9582
かつ	-9583
▁OS	-9584
▁ອຸ	-9585
▁ဖြ	-9586
icle	-9587
inis	-9588
▁near	-9589
▁AN	-9590
うまく	-9591
enny	-9592
▁ship	-9593
សិទ្ធិ	-9594
▁ground	-9595
ຫຼັງຈາກນັ້ນ	-9596
先生	-9597
Per	-9598
▁PS	-9599
▁Los	-9600
▁မေး	-9601
សិទ្ធ	-9602
▁arrest	-9603
တှ	-9604
-10	-9605
させて	-9606
alanan	-9607
▁ပြန်ကြားချက်	-9608
Am	-9609
▁dollars	-9610
300	-9611
ေါက်	-9612
ບັນລຸ	-9613
មើលឃើញ	-9614
▁ອື່ນໆ	-9615
ល្បី	-9616
Cause	-9617
普通	-9618
ភាក	-9619
បន្ថយ	-9620
▁White	-9621
▁ពួកគេ	-9622
▁ដល់	-9623
ຫົວຂໍ້	-9624
ເຄື່ອງມື	-9625
▁makipag	-9626
ដក	-9627
▁ge	-9628
anap	-9629
▁Hen	-9630
▁Pin	-9631
▁こんな	-9632
▁type	-9633
▁mouth	-9634
គោលបំណង	-9635
▁လိုအပ်	-9636
毎日	-9637
lat	-9638
じゃあ	-9639
だと思	-9640
▁Stop	-9641
ត្ថភាព	-9642
▁tiyak	-9643
▁watching	-9644
ສູ້	-9645
▁arg	-9646
▁ika	-9647
なぜなら	-9648
ປະສົງ	-9649
▁field	-9650
ជាន	-9651
▁inn	-9652
ource	-9653
သံမဏိ	-9654
▁disco	-9655
ຈັດຕັ້ງ	-9656
▁Generator	-9657
အညီ	-9658
orse	-9659
▁120	-9660
iritu	-9661
構造	-9662
Act	-9663
▁Jac	-9664
ຈະຖືກ	-9665
ະນັ້ນ	-9666
▁level	-9667
អ៊ីតាលី	-9668
▁imagine	-9669
បច្ចេកវិទ្យា	-9670
98	-9671
ラム	-9672
感謝	-9673
▁er	-9674
えました	-9675
စီရင်	-9676
osh	-9677
ersyon	-9678
ungsod	-9679
ម្នាក់	-9680
同様	-9681
ជិះ	-9682
និក	-9683
▁hay	-9684
emember	-9685
▁ရှာ	-9686
▁Mike	-9687
စစ်ဆေး	-9688
ប៉ាស៊ី	-9689
▁France	-9690
-7	-9691
ts	-9692
ava	-9693
▁aud	-9694
ស្រស់	-9695
ເພື່ອນ	-9696
▁Count	-9697
2:	-9698
look	-9699
Apple	-9700
နေအိမ်	-9701
Tingnan	-9702
▁pamilya	-9703
ja	-9704
に会	-9705
体が	-9706
ໄປໄດ້	-9707
▁ຫມູ່	-9708
ແນະນໍາ	-9709
▁halaga	-9710
ခေတ်	-9711
လက်ခံ	-9712
ဥရောပ	-9713
គំរ	-9714
▁6.	-9715
oman	-9716
တူညီ	-9717
▁finish	-9718
အလေးချိန်	-9719
専門	-9720
▁拍手	-9721
iant	-9722
ရော်	-9723
▁Sar	-9724
みましょう	-9725
▁problems	-9726
ជឿ	-9727
▁နေ့	-9728
order	-9729
ម្ហូប	-9730
អាជ្ញ	-9731
▁စွမ်း	-9732
ວັງ	-9733
សភា	-9734
ners	-9735
▁burn	-9736
▁gawa	-9737
▁イ	-9738
▁Ing	-9739
▁House	-9740
▁dangerous	-9741
に乗	-9742
Her	-9743
ears	-9744
▁sad	-9745
▁trad	-9746
install	-9747
ຈໍາເປັນ	-9748
▁French	-9749
ការជួញដូរ	-9750
လဒ်	-9751
agot	-9752
ຈາລະ	-9753
viron	-9754
វេទិកា	-9755
▁School	-9756
ເວົ້າວ່າ	-9757
▁worried	-9758
្យូ	-9759
▁ຈົນ	-9760
▁fish	-9761
命を	-9762
គេស	-9763
▁IN	-9764
fort	-9765
ືອບິນ	-9766
ကုသ	-9767
▁あなたは	-9768
▁[...]	-9769
▁direct	-9770
ប៉ាស៊ីហ្វ	-9771
របស់ក្រុមហ៊ុន	-9772
▁akt	-9773
▁yaon	-9774
ໂພ	-9775
udden	-9776
ສົມບູນ	-9777
នៅទូទាំង	-9778
▁relation	-9779
ເຟ	-9780
▁バ	-9781
ယက်	-9782
というのは	-9783
ဝင်စား	-9784
▁Store	-9785
ဆီး	-9786
▁iq	-9787
ဝါရီလ	-9788
កិច្ចព្រមព្រៀង	-9789
nam	-9790
▁Of	-9791
သည်း	-9792
အပူချိန်	-9793
▁ဗီဒီယို	-9794
ພວກເຮົາມີ	-9795
たと	-9796
グループ	-9797
anganak	-9798
▁accept	-9799
ໂຊ	-9800
័ត	-9801
ayos	-9802
ente	-9803
lear	-9804
▁Mex	-9805
▁ထင်	-9806
ໂຮງງານ	-9807
▁doktor	-9808
性を	-9809
andy	-9810
river	-9811
▁Trump	-9812
5,	-9813
かい	-9814
ケー	-9815
止め	-9816
▁ha	-9817
ពិភាក	-9818
ulungan	-9819
រដូវកាល	-9820
irgin	-9821
ထမ်း	-9822
ances	-9823
aurant	-9824
ចាប់អារម្មណ៍	-9825
ានៃ	-9826
▁同じ	-9827
နှီး	-9828
▁ຫນາ	-9829
▁Great	-9830
ulation	-9831
▁virtual	-9832
信頼	-9833
បិទ	-9834
anay	-9835
aral	-9836
ires	-9837
ប៉ុន	-9838
▁prep	-9839
▁Unidos	-9840
ឈានមុខគេ	-9841
Con	-9842
អាយ	-9843
▁ມື	-9844
ື້ອງ	-9845
ဆော်	-9846
ເຂັ້ມ	-9847
ခဲ့တာ	-9848
▁ថ្ងៃ	-9849
▁accident	-9850
ເປັນຜູ້	-9851
▁camera	-9852
▁無	-9853
ヴィ	-9854
保護	-9855
学生	-9856
▁ເຢ	-9857
▁bes	-9858
▁anong	-9859
▁ကြိုး	-9860
ພື້ນທີ່	-9861
ໃນປະເທດ	-9862
▁middle	-9863
အောင်မြင်	-9864
ei	-9865
kod	-9866
▁ແປ	-9867
▁Lin	-9868
▁git	-9869
▁vol	-9870
▁cover	-9871
န်းမာရေး	-9872
▁respect	-9873
ធ្លាក់ចុះ	-9874
ចម្	-9875
▁600	-9876
▁beg	-9877
▁paksa	-9878
ផលប៉ះពាល់	-9879
87	-9880
▁kur	-9881
ນິຍົມ	-9882
ရေးသား	-9883
▁pagsus	-9884
▁President	-9885
▁California	-9886
われる	-9887
isco	-9888
▁ປົກ	-9889
umpay	-9890
វត្ថុ	-9891
▁cross	-9892
លើកដំបូង	-9893
▁matapos	-9894
សរស	-9895
そうだ	-9896
Only	-9897
elik	-9898
house	-9899
▁risk	-9900
ດາຍ	-9901
▁Africa	-9902
▁အမျိုးအစား	-9903
ຢູ	-9904
共に	-9905
www	-9906
တိန်	-9907
ម៉ោង	-9908
▁Inc	-9909
▁Kat	-9910
▁ရန်	-9911
hington	-9912
▁langit	-9913
စျ	-9914
立て	-9915
ချေ	-9916
やった	-9917
▁ສາຍ	-9918
ົວພັນ	-9919
▁ປ່ຽນ	-9920
▁install	-9921
をお	-9922
統領	-9923
ຫ້າ	-9924
គណៈ	-9925
="4.	-9926
abol	-9927
igid	-9928
က်ဘ်	-9929
chain	-9930
និន្ន	-9931
▁အသက်	-9932
របាយការណ៍	-9933
つは	-9934
ရထား	-9935
▁PDF	-9936
▁mass	-9937
បណ្ឌិត	-9938
MA	-9939
aim	-9940
▁Cam	-9941
ခိုက်	-9942
ສະເຫນີ	-9943
ဆန်	-9944
▁36	-9945
▁ព្រ	-9946
ဖိုင်	-9947
▁Bill	-9948
ຄອມພິວ	-9949
ລາງວັນ	-9950
▁hom	-9951
ality	-9952
ຂົນສົ່ງ	-9953
▁sounds	-9954
▁project	-9955
3:	-9956
ដង	-9957
និញ	-9958
してた	-9959
▁Key	-9960
ugnay	-9961
້ານີ້	-9962
People	-9963
▁milit	-9964
ຢ້ຽມຢາມ	-9965
▁katawan	-9966
စိ	-9967
ຮົມ	-9968
កាយ	-9969
កុង	-9970
▁bast	-9971
▁komun	-9972
▁kundi	-9973
▁letter	-9974
▁halimbawa	-9975
បែប	-9976
រឿង	-9977
こっち	-9978
面白い	-9979
▁ບ້ານ	-9980
andaan	-9981
▁destroy	-9982
りに	-9983
ຣິດ	-9984
ເຕີບ	-9985
んでいます	-9986
▁flight	-9987
▁ຜະລິດຕະພັນ	-9988
ဂျာ	-9989
▁tit	-9990
▁neigh	-9991
▁service	-9992
31	-9993
eph	-9994
▁ran	-9995
isang	-9996
បណ្តាល	-9997
▁itong	-9998
▁napak	-9999
ການຜະລິດ	-10000
ເວັບໄຊທ໌	-10001
▁は	-10002
▁48	-10003
▁dam	-10004
ຽກຮ້ອງ	-10005
ຫນຶ່ງໃນ	-10006
▁Berlin	-10007
Ay	-10008
支援	-10009
လော	-10010
▁ສຽງ	-10011
▁nangang	-10012
▁Hy	-10013
From	-10014
▁စမ်း	-10015
▁often	-10016
RO	-10017
のこと	-10018
Sure	-10019
▁Det	-10020
▁ຕັດ	-10021
▁ဒါကို	-10022
▁madaling	-10023
'.	-10024
ものが	-10025
美しい	-10026
သေချာ	-10027
▁អត្ថ	-10028
▁ដោយសារ	-10029
မေးခွန်း	-10030
▁Estados	-10031
ဝက်	-10032
တည်းက	-10033
▁ນ້ໍາ	-10034
ເນື່ອງ	-10035
ប្រអប់	-10036
▁forever	-10037
▁pagbabago	-10038
ក្នុងរយៈពេល	-10039
အစိတ်အပိုင်းများ	-10040
zer	-10041
កាត	-10042
▁Wil	-10043
▁gold	-10044
年も	-10045
クリス	-10046
ခဲ့ရ	-10047
ាណាដា	-10048
▁street	-10049
▁ສະນັ້ນ	-10050
▁hol	-10051
▁ມູນ	-10052
▁ນະຄອນ	-10053
▁အောင်	-10054
▁គាត់បាន	-10055
ូម៉	-10056
問題を	-10057
កំណើន	-10058
▁မရှိ	-10059
▁Austral	-10060
និន្នាការ	-10061
きて	-10062
ລົມ	-10063
ទូទៅ	-10064
ស្អាត	-10065
▁အထူး	-10066
လုံးကို	-10067
▁နှင့်အ	-10068
▁clothes	-10069
Qu	-10070
▁AC	-10071
分かる	-10072
ຖານະ	-10073
ទំនិញ	-10074
លើកទី	-10075
▁ride	-10076
▁taga	-10077
▁ສັ່ງ	-10078
အနည်းငယ်	-10079
ដាក់ប្រាក់	-10080
スが	-10081
唯一	-10082
ປາກ	-10083
ပူး	-10084
れました	-10085
▁စကား	-10086
ខិតខំ	-10087
▁king	-10088
Excuse	-10089
▁kinuha	-10090
▁favorite	-10091
エル	-10092
လတ်	-10093
uting	-10094
▁တိုး	-10095
abihin	-10096
▁ប្រសិនបើ	-10097
種の	-10098
装置	-10099
ဆင့်	-10100
វិភាគ	-10101
▁chat	-10102
ສ່ວນຕົວ	-10103
▁Rec	-10104
inese	-10105
ចម្រើន	-10106
▁ພວກເຂົາ	-10107
正しい	-10108
▁Win	-10109
ការប្រកួត	-10110
わず	-10111
テレ	-10112
父親	-10113
ប្រែ	-10114
▁Sin	-10115
れています	-10116
သုံးသပ်	-10117
ត្រឹមតែ	-10118
▁station	-10119
97	-10120
情報を	-10121
ານີ້	-10122
▁siy	-10123
មួយនៃ	-10124
ແຜນການ	-10125
နှစ်ခု	-10126
ຫຼຸດລົງ	-10127
ວິທະຍາສາດ	-10128
ຣາ	-10129
arin	-10130
ເຄືອ	-10131
ဘုရား	-10132
ប៉ាស៊ីហ្វិក	-10133
込み	-10134
awala	-10135
បញ្ជី	-10136
▁Pass	-10137
▁kita	-10138
stairs	-10139
友人	-10140
過ご	-10141
ငှါ	-10142
ຜິດຊອບ	-10143
ទូរស័ព្ទ	-10144
いを	-10145
▁3:	-10146
ຫມູ່	-10147
▁fac	-10148
▁kept	-10149
▁trip	-10150
မှာပါ။	-10151
▁invol	-10152
▁အကောင်းဆုံး	-10153
បាត	-10154
▁他の	-10155
▁eight	-10156
▁threat	-10157
▁pangang	-10158
appy	-10159
▁Ale	-10160
ったのです	-10161
▁quiet	-10162
▁worse	-10163
▁kailangang	-10164
bet	-10165
pro	-10166
ກຸນ	-10167
▁iss	-10168
ឺម៉ង់	-10169
▁Cook	-10170
▁rate	-10171
ອົບຮົມ	-10172
ປະສິດທິພາບ	-10173
uke	-10174
well	-10175
▁Tim	-10176
▁ຈຸດ	-10177
inder	-10178
ສົນໃຈ	-10179
▁អង្គ	-10180
▁State	-10181
インターネット	-10182
▁yesterday	-10183
မရ	-10184
eal	-10185
atin	-10186
ញ្ញា	-10187
តុលា	-10188
▁god	-10189
▁When	-10190
▁missing	-10191
ມືຖື	-10192
កាលពី	-10193
ក្នុងតំបន់	-10194
CA	-10195
▁cash	-10196
種類	-10197
រឹង	-10198
ワーク	-10199
resh	-10200
ហ្គេ	-10201
ប្រឈម	-10202
သင်သည်	-10203
ីទ	-10204
ຊັບ	-10205
▁ຫາກ	-10206
▁Light	-10207
▁https	-10208
ကောင်းတဲ့	-10209
▁သူတို့ရဲ့	-10210
ກຽມ	-10211
ບວນ	-10212
▁DC	-10213
uwid	-10214
သားစု	-10215
▁murd	-10216
ということ	-10217
のでしょう	-10218
▁honest	-10219
ເປັນເຈົ້າ	-10220
gn	-10221
気が	-10222
▁ig	-10223
▁viol	-10224
▁ໂດລາ	-10225
プログラム	-10226
ဖြစ်ပြီး	-10227
Everything	-10228
LD	-10229
ကီ	-10230
ាប័	-10231
ារព	-10232
ယ်ယာ	-10233
▁Bud	-10234
▁どんな	-10235
ville	-10236
▁jump	-10237
▁exist	-10238
▁plane	-10239
Sapagka	-10240
テー	-10241
ດັນ	-10242
ថ្ន	-10243
▁ໂມງ	-10244
▁ລຸ້ນ	-10245
ແທ້ຈິງ	-10246
ုံ့ပြန်	-10247
のも	-10248
ubai	-10249
▁kilala	-10250
▁difficult	-10251
ຄວາມຕ້ອງການ	-10252
!!	-10253
ring	-10254
ကွဲပြားခြားနား	-10255
ວົງ	-10256
host	-10257
iyan	-10258
ຍ້າຍ	-10259
▁Ener	-10260
ភាពជាដៃគូ	-10261
Mom	-10262
▁Bay	-10263
បម្រើ	-10264
▁wear	-10265
お前の	-10266
yaring	-10267
42	-10268
驚く	-10269
▁deg	-10270
တာနက်	-10271
▁stick	-10272
နည်းလမ်း	-10273
GO	-10274
្ខ	-10275
あれ	-10276
時間を	-10277
းစား	-10278
▁pati	-10279
ulugan	-10280
▁Island	-10281
iana	-10282
▁ກັດ	-10283
▁ດ້ານ	-10284
▁Robert	-10285
iger	-10286
igil	-10287
irty	-10288
▁jud	-10289
light	-10290
▁blow	-10291
▁discuss	-10292
▁メ	-10293
ເງົາ	-10294
ព្រៃ	-10295
အသင်း	-10296
ធ្វើឡើង	-10297
ological	-10298
ច្រើនជាង	-10299
ယခု	-10300
ばかり	-10301
新たな	-10302
▁arm	-10303
▁彼女は	-10304
▁nagd	-10305
ection	-10306
agdagang	-10307
စျေးကွက်	-10308
▁boyfriend	-10309
▁君	-10310
ကျင့်	-10311
▁ລວມທັງ	-10312
▁president	-10313
に住	-10314
将来	-10315
ធ្ន	-10316
cean	-10317
ដាប់	-10318
យោបាយ	-10319
ヴァ	-10320
ឆាំង	-10321
▁wika	-10322
くり	-10323
▁Ah	-10324
ຈະບໍ່	-10325
▁bumalik	-10326
▁patuloy	-10327
▁science	-10328
移動	-10329
aks	-10330
るんだ	-10331
ထုံး	-10332
ဒီယာ	-10333
▁court	-10334
ພວກເຮົາໄດ້	-10335
ម្អ	-10336
olut	-10337
click	-10338
▁Arab	-10339
▁ដែលបាន	-10340
ມາດຕະຖານ	-10341
ສ່ວນໃຫຍ່	-10342
ーロ	-10343
ဝေး	-10344
▁Tor	-10345
▁ໄວ້	-10346
▁slow	-10347
အကြောင်းကို	-10348
ြိ	-10349
▁GB	-10350
akin	-10351
ွင်း	-10352
ហត្ថ	-10353
▁Have	-10354
▁glass	-10355
強い	-10356
▁gift	-10357
သင်တို့	-10358
とに	-10359
rey	-10360
ເດຍ	-10361
ឈើប	-10362
▁မြေ	-10363
▁Watch	-10364
អាកាសធាតុ	-10365
▁peace	-10366
▁evidence	-10367
ဖုန်ကောက်ခံရေး	-10368
ges	-10369
▁occ	-10370
ປະສົມ	-10371
တွန်း	-10372
▁ຫມັກ	-10373
▁proud	-10374
ເພື່ອໃຫ້	-10375
ウォ	-10376
ដើរ	-10377
▁ဒေါ်လာ	-10378
▁AS	-10379
出して	-10380
ເຄາະ	-10381
ellig	-10382
▁Hong	-10383
▁totoo	-10384
▁thinks	-10385
លើកកម្ពស់	-10386
စောင့်ရှောက်	-10387
တူး	-10388
▁ug	-10389
つける	-10390
iles	-10391
▁muk	-10392
ລະບຽບ	-10393
▁កំពុង	-10394
▁សណ្ឋាគារ	-10395
良く	-10396
ein	-10397
それに	-10398
の世界	-10399
▁Her	-10400
arling	-10401
စုဆောင်း	-10402
▁ທັງຫມົດ	-10403
を受	-10404
誰が	-10405
ប្ល	-10406
▁Die	-10407
▁Que	-10408
▁Reg	-10409
ៀតណាម	-10410
လီမီတာ	-10411
စွမ်းရည်	-10412
実現	-10413
kin	-10414
ined	-10415
▁paid	-10416
▁မြန်	-10417
しなければ	-10418
▁សមាគម	-10419
ပေးနိုင်	-10420
▁លានដុល្លារ	-10421
ຄົມ	-10422
▁Lab	-10423
ារព្ធ	-10424
▁Institute	-10425
HO	-10426
物理	-10427
ella	-10428
▁ຮຽນ	-10429
ograph	-10430
▁ကုမ္ပဏီ	-10431
ເຣ	-10432
伝え	-10433
antic	-10434
လွှတ်	-10435
▁mistake	-10436
▁talagang	-10437
▁他	-10438
off	-10439
ជំហ	-10440
ることです	-10441
akbang	-10442
មានភាព	-10443
▁legal	-10444
atapuwa	-10445
ກວ້າງ	-10446
ឡប់	-10447
異なる	-10448
akda	-10449
▁eas	-10450
▁しかし	-10451
ທົດລອງ	-10452
របស់វា	-10453
▁នៅពេលដែល	-10454
イツ	-10455
化学	-10456
感染	-10457
ເລີດ	-10458
အနေနဲ့	-10459
ាចិត្ត	-10460
クラ	-10461
パパ	-10462
ແອັບ	-10463
ត្រី	-10464
▁base	-10465
▁ဖြစ်ပါတယ်။	-10466
▁ロ	-10467
投資	-10468
▁7.	-10469
လွတ်	-10470
▁tren	-10471
▁India	-10472
9,	-10473
ကင်	-10474
ចុច	-10475
ប្រមូល	-10476
▁search	-10477
▁interested	-10478
▁の	-10479
ジュ	-10480
အက်	-10481
តីត	-10482
ကြတယ်။	-10483
ကွာအဝေး	-10484
ືດ	-10485
なし	-10486
ຂັບ	-10487
បាច់	-10488
▁みんな	-10489
istic	-10490
ောငျး	-10491
ហត្ថលេខ	-10492
▁during	-10493
▁dahilan	-10494
ເພີ່ມຂຶ້ນ	-10495
GBT	-10496
ສາວ	-10497
egas	-10498
▁Ray	-10499
လပ်စတစ်	-10500
確認	-10501
ເຂົ	-10502
ອາໄສ	-10503
▁port	-10504
▁ဘာသာ	-10505
▁energy	-10506
အခန်း	-10507
▁States	-10508
▁recogn	-10509
数の	-10510
្ងាច	-10511
ently	-10512
ကွင်း	-10513
មូលនិ	-10514
វិច្ឆ	-10515
ension	-10516
▁buddy	-10517
ອະນາ	-10518
ကျင့်	-10519
ငြိမ်	-10520
Sinabi	-10521
▁tired	-10522
ເຄືອຂ່າຍ	-10523
6)	-10524
ិន្ន	-10525
အင်္ဂ	-10526
បំពេញ	-10527
▁Star	-10528
ພຣະອົງ	-10529
လောင်း	-10530
otohanan	-10531
សមត្ថភាព	-10532
▁sitting	-10533
ဗီ	-10534
iwa	-10535
どうか	-10536
បត្ត	-10537
owers	-10538
▁convers	-10539
百万	-10540
者を	-10541
▁Cop	-10542
▁PVC	-10543
▁Sing	-10544
▁circ	-10545
ផ្តល់ឱ្យ	-10546
▁Angeles	-10547
bra	-10548
▁Ca	-10549
ຢັ້ງ	-10550
ຫລັງ	-10551
မှား	-10552
▁あなたの	-10553
▁mapag	-10554
▁ពាន់លាន	-10555
▁customer	-10556
ោទ	-10557
市場	-10558
最大	-10559
ແຜ່	-10560
▁Sum	-10561
▁ann	-10562
▁ice	-10563
ណាមួយ	-10564
▁emer	-10565
bre	-10566
▁EUR	-10567
▁ပြင်	-10568
世代	-10569
認識	-10570
ានុ	-10571
▁Sur	-10572
▁ອໍາ	-10573
攻撃	-10574
目に	-10575
မကြာ	-10576
က္ခဏာ	-10577
ပုံတင်	-10578
のない	-10579
onse	-10580
ជាប់	-10581
▁Ros	-10582
ត្រឡប់	-10583
▁success	-10584
ズム	-10585
ဖြူ	-10586
をして	-10587
Those	-10588
▁boat	-10589
▁ဓာတ်	-10590
ibility	-10591
▁နောက်ဆုံး	-10592
博士	-10593
ned	-10594
illy	-10595
ចំណុច	-10596
ម្រាប់	-10597
សាធារណៈ	-10598
▁target	-10599
▁ນີ້ແມ່ນ	-10600
始めた	-10601
ប្រជ	-10602
▁broke	-10603
▁tingin	-10604
▁browser	-10605
រីកចម្រើន	-10606
ប្រចាំឆ្នាំ	-10607
ប្តេជ្ញាចិត្ត	-10608
上で	-10609
同時に	-10610
អប់រំ	-10611
▁bomb	-10612
▁carry	-10613
▁mabilis	-10614
EA	-10615
創造	-10616
ໂທດ	-10617
ညှိ	-10618
hood	-10619
▁အသံ	-10620
▁ສະຫນ	-10621
နှောက်	-10622
ទទួលយក	-10623
tic	-10624
がいる	-10625
ភ្នាល់	-10626
▁admin	-10627
ဖေါ်	-10628
▁Cap	-10629
▁Mer	-10630
စွန်း	-10631
ជប៉ុន	-10632
▁アメリカ	-10633
ugnayan	-10634
▁Master	-10635
んの	-10636
avy	-10637
ador	-10638
សន្យ	-10639
ってきた	-10640
▁bought	-10641
ដែលកំពុង	-10642
▁British	-10643
ອອນ	-10644
セント	-10645
onia	-10646
▁Joe	-10647
あらゆる	-10648
Email	-10649
▁masy	-10650
▁namatay	-10651
",	-10652
ဖူး	-10653
មាំ	-10654
もので	-10655
▁Act	-10656
ဆက်စပ်	-10657
破壊	-10658
ធៀប	-10659
以上の	-10660
ເລີຍ	-10661
▁Sun	-10662
▁kit	-10663
▁pil	-10664
uggest	-10665
ບາງຢ່າງ	-10666
បុគ្គលិក	-10667
▁သို့သော်	-10668
▁nagsimula	-10669
▁tinatawag	-10670
77	-10671
両親	-10672
အလာ	-10673
မူနာ	-10674
ិសីទ	-10675
▁Mel	-10676
▁မို	-10677
စေရန်	-10678
▁អត្ថបទ	-10679
ることができます	-10680
▁Washington	-10681
▁Hu	-10682
chan	-10683
ibil	-10684
▁har	-10685
▁ရော	-10686
roong	-10687
▁example	-10688
41	-10689
လံ	-10690
win	-10691
▁Im	-10692
atar	-10693
▁kad	-10694
▁daan	-10695
ournal	-10696
ສືບຕໍ່	-10697
▁proper	-10698
▁စီးရီး	-10699
ស្នាក់នៅ	-10700
ຶງ	-10701
၀၁	-10702
ចំ	-10703
障害	-10704
ແມັດ	-10705
▁kil	-10706
▁ແກ່	-10707
សិល្ប	-10708
▁wake	-10709
ຈາກການ	-10710
ຈາລະນາ	-10711
▁ကြည့်	-10712
▁libreng	-10713
DA	-10714
暮ら	-10715
までに	-10716
るのは	-10717
キャン	-10718
▁McK	-10719
▁Sem	-10720
▁ເສດ	-10721
▁huge	-10722
▁itaas	-10723
စီမံကိန်း	-10724
▁investig	-10725
MP	-10726
文字	-10727
▁Mi	-10728
▁ただ	-10729
終わり	-10730
ades	-10731
ແຫນ່ງ	-10732
▁Wait	-10733
ຕົນເອງ	-10734
ເຂົ້າເຖິງ	-10735
ကိုယ်ပိုင်	-10736
▁50%	-10737
▁800	-10738
အဆုံး	-10739
အာမခံ	-10740
▁film	-10741
ຕິດຕໍ່	-10742
မိုင်း	-10743
នយោបាយ	-10744
▁board	-10745
▁ganap	-10746
▁belong	-10747
မှုအတွက်	-10748
わた	-10749
私も	-10750
បល់	-10751
enty	-10752
▁ຮ້ອງ	-10753
ເລືອກຕັ້ງ	-10754
▁ໃນຂະນະທີ່	-10755
▁ပြောင်းလဲ	-10756
TS	-10757
ណាក	-10758
apped	-10759
ມູນຄ່າ	-10760
▁propes	-10761
▁អង្គការ	-10762
dom	-10763
大きく	-10764
ဒီမှာ	-10765
▁bersyon	-10766
ねえ	-10767
ຈິດ	-10768
ປົວ	-10769
သူမ	-10770
ເຊັນ	-10771
▁tekn	-10772
▁miles	-10773
▁within	-10774
သူတို့ကို	-10775
ss	-10776
タル	-10777
的で	-10778
ແນ່	-10779
ໄຫມ	-10780
ធ្នូ	-10781
▁mount	-10782
စီမံခန့်ခွဲ	-10783
よし	-10784
ດີດ	-10785
ົ້ມ	-10786
▁75	-10787
▁ດາ	-10788
ກິດຈະ	-10789
ພະຍາດ	-10790
စရိတ်	-10791
ប៉ាល់	-10792
ိတ်ဆက်	-10793
មុនពេល	-10794
▁Techn	-10795
vironment	-10796
務所	-10797
rel	-10798
ពោះ	-10799
▁fol	-10800
▁Then	-10801
▁Russian	-10802
upt	-10803
ນອນ	-10804
ៀវភៅ	-10805
▁Pil	-10806
ຊື່ສຽງ	-10807
ງ່າຍດາຍ	-10808
▁victim	-10809
ဆောင်ရွက်	-10810
▁programa	-10811
ຍອມ	-10812
အလို	-10813
ផ្ទៃ	-10814
しません	-10815
ခွင့်ပြု	-10816
▁ບໍ່ແມ່ນ	-10817
ັສ	-10818
ブロ	-10819
▁Ir	-10820
စ္ဆာ	-10821
▁Pat	-10822
▁本当に	-10823
ដំណឹង	-10824
▁vill	-10825
ដ៏ធំ	-10826
▁Kong	-10827
adu	-10828
あまり	-10829
▁huk	-10830
▁tax	-10831
▁ຢາກ	-10832
▁situation	-10833
ケット	-10834
over	-10835
សម័យ	-10836
ាញយក	-10837
ဖက်ရှင်	-10838
▁scient	-10839
85	-10840
ca	-10841
Che	-10842
▁Give	-10843
▁私たちの	-10844
ຄວາມວ່າ	-10845
▁ວິທີການ	-10846
▁terrible	-10847
ចូលរួមជាមួយ	-10848
真実	-10849
rol	-10850
ខែក	-10851
ជនី	-10852
▁8.	-10853
▁子供	-10854
ຟື້ນ	-10855
▁mention	-10856
▁WordPress	-10857
▁စီးပွားရေး	-10858
もない	-10859
ສະນາ	-10860
empre	-10861
▁caught	-10862
ໃນເວລາທີ່	-10863
取り組	-10864
▁ເດີ	-10865
▁Call	-10866
するために	-10867
▁grupo	-10868
ៈសំខាន់	-10869
ធឺ	-10870
切り	-10871
ကြံ	-10872
ងើប	-10873
▁mm	-10874
▁Acc	-10875
បរទេស	-10876
ຕະຫຼອດ	-10877
အရေအတွက်	-10878
▁killing	-10879
ຕາເວັນອອກ	-10880
ido	-10881
▁Eg	-10882
ဉာဏ်	-10883
ទាត់	-10884
ជនីយដ្ឋាន	-10885
ចក្រភពអង់គ្លេស	-10886
ងាត់	-10887
▁Hon	-10888
ってない	-10889
▁activ	-10890
▁kasam	-10891
សម្បត្តិ	-10892
▁彼の	-10893
▁ວິທີ	-10894
ທັງສອງ	-10895
elikula	-10896
ត្រូវតែ	-10897
▁naming	-10898
▁anywhere	-10899
原因	-10900
多い	-10901
ooth	-10902
ukoy	-10903
▁ສັດ	-10904
▁coll	-10905
▁hasn	-10906
ប្រឆាំង	-10907
▁sudden	-10908
វិច្ឆិកា	-10909
4:	-10910
ရယူ	-10911
▁ລິ	-10912
aser	-10913
ီလက်	-10914
▁gabi	-10915
▁slot	-10916
plause	-10917
▁Global	-10918
▁handle	-10919
▁ကိုယ့်	-10920
ភោ	-10921
▁Ob	-10922
続けて	-10923
မီနီ	-10924
ហ្ស៊ី	-10925
▁blue	-10926
ເສັ້ນທາງ	-10927
ッセ	-10928
▁ຊົນ	-10929
gency	-10930
ກປ່ຽນ	-10931
▁teach	-10932
ិយាល័យ	-10933
ເຕັກໂນໂລ	-10934
ភោជនីយដ្ឋាន	-10935
▁technology	-10936
ガン	-10937
芸術	-10938
reed	-10939
သူတွေ	-10940
▁pray	-10941
ພວກມັນ	-10942
▁spent	-10943
▁forward	-10944
កក់	-10945
▁CS	-10946
្រឹង	-10947
▁190	-10948
▁low	-10949
▁ເອງ	-10950
▁seven	-10951
chelles	-10952
ចែករំលែក	-10953
တိုက်ရိုက်	-10954
ေဒ	-10955
▁ຍາ	-10956
▁bird	-10957
▁matematiko	-10958
▁cryptocurren	-10959
ៀម	-10960
▁作	-10961
画像	-10962
▁それを	-10963
လျော်	-10964
▁Prod	-10965
သေတ္တာ	-10966
នៅប្រទេស	-10967
▁suggest	-10968
▁totally	-10969
近く	-10970
▁Ano	-10971
▁Nob	-10972
▁ill	-10973
ហ្គេម	-10974
▁pero	-10975
▁Royal	-10976
olutely	-10977
▁Russia	-10978
▁Download	-10979
ិម	-10980
以外	-10981
▁kl	-10982
apay	-10983
uage	-10984
က္ကူ	-10985
▁deb	-10986
▁naw	-10987
▁Home	-10988
incess	-10989
ပါတယ်၊	-10990
ယ်ရှား	-10991
▁Saint	-10992
▁tanong	-10993
▁research	-10994
သတိ	-10995
ຕາລີ	-10996
ໃນເວລາ	-10997
လျှပ်စစ်	-10998
ကုန်ပစ္စည်း	-10999
ပါလိမ့်မယ်။	-11000
RL	-11001
កូន	-11002
▁bi	-11003
するか	-11004
女の子	-11005
ອໍານ	-11006
សរុប	-11007
អាយុ	-11008
▁Ham	-11009
▁ဝင်	-11010
intay	-11011
ດຽວນີ້	-11012
▁Found	-11013
▁ປະຕິບັດ	-11014
របស់ពួកគេ។	-11015
▁katunayan	-11016
明日	-11017
ဓာတု	-11018
កីឡា	-11019
ທ່ານຈະ	-11020
ွေးနွေး	-11021
▁Market	-11022
▁mobile	-11023
▁strange	-11024
បន្ទាប់មក	-11025
Sc	-11026
の人生	-11027
hiya	-11028
▁Bab	-11029
▁club	-11030
だからです	-11031
ខាងជើង	-11032
ຄຸ້ມຄອງ	-11033
PU	-11034
きゃ	-11035
僕の	-11036
切な	-11037
ຝາກ	-11038
enyo	-11039
ຂ້າມ	-11040
လိုင်	-11041
တစ်ခုကို	-11042
រទេសចរណ៍	-11043
生産	-11044
▁yung	-11045
များမှာ	-11046
▁screen	-11047
យុទ្ធសាស្ត្រ	-11048
の大	-11049
ຈົດ	-11050
ດົນ	-11051
ວິຊາ	-11052
ေါင်	-11053
និយម	-11054
iliin	-11055
ប្រឹង	-11056
ប្រជែង	-11057
▁Maybe	-11058
ຫວຽດນາມ	-11059
ທີ່ສຸດຂອງ	-11060
協力	-11061
ser	-11062
gest	-11063
មករា	-11064
▁ညနေ	-11065
▁moved	-11066
Actually	-11067
ນ໌	-11068
そらく	-11069
rend	-11070
ប្រែង	-11071
alagay	-11072
ampalat	-11073
▁became	-11074
rem	-11075
ends	-11076
ites	-11077
សន្ត	-11078
▁page	-11079
▁သင်သည်	-11080
▁evening	-11081
▁wearing	-11082
សារៈសំខាន់	-11083
恐怖	-11084
uty	-11085
はこの	-11086
といった	-11087
ទៅនឹង	-11088
▁Holm	-11089
▁Plus	-11090
▁baga	-11091
မော်တော်	-11092
ងើបឡើងវិញ	-11093
ូក	-11094
▁imm	-11095
riage	-11096
ເຫນືອ	-11097
ួនាទី	-11098
▁text	-11099
ສາທາລະ	-11100
ကာစီနို	-11101
▁kailan	-11102
出した	-11103
တိကျ	-11104
▁kick	-11105
▁store	-11106
運転	-11107
pan	-11108
ston	-11109
ເລັກ	-11110
▁ສິດ	-11111
oring	-11112
verage	-11113
▁အားဖြင့်	-11114
ប្រឹងប្រែង	-11115
犯罪	-11116
▁5,	-11117
ឧត្ត	-11118
▁LGBT	-11119
▁ຫຍັງ	-11120
▁ပတ်သက်	-11121
イト	-11122
900	-11123
chen	-11124
ုတိယ	-11125
▁dom	-11126
Never	-11127
Noong	-11128
កើតឡើង	-11129
ပုံမှန်	-11130
みな	-11131
ຮັບປະກັນ	-11132
ကုန်သွယ်	-11133
MC	-11134
ရံ	-11135
▁心	-11136
子を	-11137
enta	-11138
ໄປຫາ	-11139
eless	-11140
▁mapa	-11141
▁pahina	-11142
▁planet	-11143
▁whether	-11144
zz	-11145
管理	-11146
言語	-11147
urb	-11148
▁Av	-11149
ocol	-11150
ありました	-11151
စ္ဆာန်	-11152
▁swear	-11153
▁ဒါပေမယ့်	-11154
市民	-11155
မျဉ်း	-11156
▁Kore	-11157
▁ident	-11158
▁pagtat	-11159
▁realize	-11160
ification	-11161
▁gentlemen	-11162
▁karagdagang	-11163
ミー	-11164
議論	-11165
law	-11166
▁もし	-11167
▁Sand	-11168
/0	-11169
を書	-11170
的には	-11171
▁စား	-11172
▁Europe	-11173
▁instead	-11174
ဆောင်းပါး	-11175
シェ	-11176
になると	-11177
ឧត្តម	-11178
▁ways	-11179
ဆောင်ရည်	-11180
ປະຕິບັດການ	-11181
ែត	-11182
分野	-11183
民主	-11184
ancy	-11185
ប័ណ្ណ	-11186
▁Free	-11187
▁Laro	-11188
▁double	-11189
▁magagamit	-11190
▁mahalagang	-11191
理論	-11192
wal	-11193
▁(1	-11194
gram	-11195
▁TED	-11196
▁လုံး	-11197
ilosop	-11198
မြှုပ်	-11199
ຫນ້ານີ້	-11200
eychelles	-11201
aste	-11202
hole	-11203
ဂုတ်	-11204
ຊູ	-11205
約束	-11206
母さん	-11207
ရမည်	-11208
အိပ်	-11209
ន្មាន	-11210
ោងតាម	-11211
▁rain	-11212
atform	-11213
▁Bonus	-11214
ひど	-11215
ရပါ	-11216
ចោល	-11217
助けて	-11218
မွန်	-11219
လျား	-11220
▁သစ်	-11221
agement	-11222
ពាក់ព័ន្ធ	-11223
▁kasaluku	-11224
ោន	-11225
ジネ	-11226
目は	-11227
くれた	-11228
なので	-11229
カメラ	-11230
akad	-11231
▁server	-11232
▁ພວກເຮົ	-11233
ကြိုးစား	-11234
ចាប់តាំងពី	-11235
まえ	-11236
感覚	-11237
oma	-11238
▁Cy	-11239
ukat	-11240
▁earth	-11241
▁အချက်	-11242
ipilian	-11243
အကြံပြု	-11244
ラク	-11245
kum	-11246
udy	-11247
ပြေ	-11248
oday	-11249
▁ວິດ	-11250
បត្តិក	-11251
▁gitna	-11252
စဉ်းစား	-11253
အို	-11254
cast	-11255
▁ຕົກ	-11256
▁ສະແດງ	-11257
▁Mobile	-11258
▁umalis	-11259
သူတို့ရဲ့	-11260
表現	-11261
-12	-11262
▁soul	-11263
ampalataya	-11264
まあ	-11265
ハイ	-11266
聞く	-11267
အမှန်	-11268
ជ្រាវ	-11269
▁kaso	-11270
ground	-11271
ecially	-11272
ាវជ្រាវ	-11273
▁summer	-11274
建築	-11275
ត្រា	-11276
រចនា	-11277
ສະບາຍ	-11278
ប្រណិត	-11279
ບໍລິຫານ	-11280
▁lungsod	-11281
▁paggawa	-11282
疑問	-11283
sey	-11284
ဗျာ	-11285
ថាស	-11286
▁វិ	-11287
の一部	-11288
abay	-11289
▁enc	-11290
နိမ့်	-11291
▁Hall	-11292
ulator	-11293
ໃນຂະນະທີ່	-11294
ແຊ	-11295
ភ័យ	-11296
ache	-11297
ូហ្គ	-11298
▁suit	-11299
ishing	-11300
iverse	-11301
ထုပ်ပိုး	-11302
នាយកប្រតិបត្តិ	-11303
ルト	-11304
知識	-11305
気持ち	-11306
ials	-11307
▁つまり	-11308
▁rout	-11309
ilyong	-11310
ສົງຄາມ	-11311
▁batang	-11312
ប្រព័ន្ធគោលពីរ	-11313
特定	-11314
ibe	-11315
Hold	-11316
▁10%	-11317
▁ရွေး	-11318
66	-11319
連絡	-11320
ခုံ	-11321
▁သံမဏိ	-11322
initely	-11323
▁国	-11324
Keep	-11325
▁Jew	-11326
▁Juda	-11327
分からない	-11328
ចុះឈ្មោះ	-11329
▁College	-11330
ຝຶກອົບຮົມ	-11331
▁gumagana	-11332
▁‘	-11333
▁す	-11334
▁サ	-11335
ຫມັ້ນ	-11336
▁saved	-11337
ပါဝင်သည်	-11338
▁ລະຫວ່າງ	-11339
៏ដោយ	-11340
▁CNC	-11341
unawa	-11342
ຕິພາບ	-11343
လျော့	-11344
ຄົນທີ່	-11345
▁Dubai	-11346
▁green	-11347
ຕັດສິນໃຈ	-11348
▁college	-11349
▁ក្នុងឆ្នាំ	-11350
設計	-11351
可能な	-11352
Book	-11353
ိန္ဒ	-11354
▁19,	-11355
▁ລໍາ	-11356
Upang	-11357
ង់ចាំ	-11358
▁vari	-11359
▁Hello	-11360
កាត់បន្ថយ	-11361
▁នាយកប្រតិបត្តិ	-11362
atal	-11363
▁USA	-11364
▁လို့	-11365
▁lunch	-11366
▁နံနက်	-11367
▁learned	-11368
生徒	-11369
ໂຈມ	-11370
ကဒ်	-11371
▁ຕີ	-11372
▁ទី	-11373
かなり	-11374
すごく	-11375
ំផុត	-11376
▁Ako	-11377
▁Bas	-11378
▁ဖုန်	-11379
urance	-11380
້ອນຮັບ	-11381
▁masyadong	-11382
ခဏ	-11383
っき	-11384
ုဏ်	-11385
を持ち	-11386
理由は	-11387
ໄຟລ໌	-11388
ានិង	-11389
ອາຊີບ	-11390
▁distr	-11391
ပြုပြင်	-11392
▁dating	-11393
▁magulang	-11394
▁telepono	-11395
者に	-11396
ແຮມ	-11397
ビジネ	-11398
နာရီ	-11399
နုပညာ	-11400
▁partner	-11401
▁solusyon	-11402
みて	-11403
注意	-11404
reg	-11405
ught	-11406
ទាន់	-11407
ຂອງຜູ້	-11408
▁artikulo	-11409
▁កិច្ចប្រជុំ	-11410
lt	-11411
oop	-11412
အီး	-11413
ຈຶ່ງ	-11414
ချက်များကို	-11415
Hz	-11416
400	-11417
change	-11418
今は	-11419
出来る	-11420
ကျူး	-11421
ဂျက်	-11422
としても	-11423
ended	-11424
រកឃើញ	-11425
▁warm	-11426
▁ibabaw	-11427
▁master	-11428
▁ពិន្ទុ	-11429
igo	-11430
ຂາວ	-11431
▁noon	-11432
ພົວພັນ	-11433
ວຽກງານ	-11434
ແມ່ນຫຍັງ	-11435
▁Chinese	-11436
▁រហ	-11437
ieve	-11438
▁Hal	-11439
▁Upang	-11440
▁lived	-11441
▁<	-11442
かし	-11443
を送	-11444
個人	-11445
Tom	-11446
uda	-11447
▁သြ	-11448
▁彼女	-11449
ខ្ចោះ	-11450
ផ្អែក	-11451
▁lying	-11452
ប្រសិទ្ធ	-11453
▁そこ	-11454
Miss	-11455
ဏ္ဍာ	-11456
▁新しい	-11457
ສະຫມັກ	-11458
▁Video	-11459
ຢັ້ງຢືນ	-11460
ឥតខ្ចោះ	-11461
▁စမ်းသပ်	-11462
▁ទេសចរណ៍	-11463
体験	-11464
lay	-11465
ecess	-11466
မေးလ်	-11467
▁jail	-11468
ឈើបៃតង	-11469
▁ເຮືອນ	-11470
脳の	-11471
្ប៉	-11472
ened	-11473
ະນິດ	-11474
▁los	-11475
နိုငျ	-11476
▁forgot	-11477
အတွေ့အကြုံ	-11478
'?	-11479
フト	-11480
たちに	-11481
အဆင်	-11482
▁pig	-11483
▁apat	-11484
▁magd	-11485
របស់យើង។	-11486
▁karapat	-11487
ကျွန်တော်တို့ကို	-11488
私達の	-11489
year	-11490
▁tip	-11491
▁大丈夫	-11492
ໃນວັນ	-11493
▁nagm	-11494
Nobody	-11495
ending	-11496
▁Power	-11497
▁Amerik	-11498
▁paligid	-11499
▁ထဲ	-11500
rome	-11501
▁ခံစား	-11502
ទាំងពីរ	-11503
コンピューター	-11504
នៃប្រទេស	-11505
学の	-11506
Got	-11507
ຍອດ	-11508
ແນນ	-11509
▁ထိ	-11510
ាវ៉ៃ	-11511
▁Bart	-11512
▁cock	-11513
▁ມີນາ	-11514
▁ခရီး	-11515
ສົມບັດ	-11516
▁ກັນຍາ	-11517
▁mabuti	-11518
オン	-11519
▁55	-11520
だけど	-11521
ຕື່ມ	-11522
▁នាទី	-11523
▁ထိန်း	-11524
▁あの	-11525
Kahit	-11526
មកវិញ	-11527
វេជ្ជ	-11528
atayan	-11529
ဆိုလို	-11530
▁forex	-11531
▁restaurant	-11532
TP	-11533
ထည်	-11534
▁vis	-11535
ចាំបាច់	-11536
▁kidding	-11537
ようになりました	-11538
ັກຊ	-11539
▁(19	-11540
▁GPS	-11541
▁hide	-11542
わからない	-11543
ယာကြိုး	-11544
▁Option	-11545
ຫລາຍກວ່າ	-11546
ခြင်းငှါ	-11547
ဗားရှင်း	-11548
▁លាននាក់	-11549
ッグ	-11550
事に	-11551
បីជា	-11552
▁Nag	-11553
▁lin	-11554
▁Carl	-11555
▁credit	-11556
▁ຂອງການ	-11557
▁コ	-11558
ជួល	-11559
ថុន	-11560
テレビ	-11561
繰り返	-11562
elop	-11563
▁ສົງ	-11564
▁ちょっと	-11565
▁antas	-11566
ប្រារព្ធ	-11567
8,	-11568
ils	-11569
▁အတူ	-11570
ឆ្នោត	-11571
▁concern	-11572
ខិតខំប្រឹងប្រែង	-11573
TTC	-11574
▁လာ	-11575
▁Lee	-11576
លទ្ធផល	-11577
▁extra	-11578
55	-11579
ိယ	-11580
មន	-11581
さを	-11582
らが	-11583
ask	-11584
▁ibaba	-11585
▁expert	-11586
▁စိတ်ကူး	-11587
単純	-11588
たった	-11589
人々は	-11590
ສິ້ນ	-11591
នភាព	-11592
▁အမြ	-11593
▁Long	-11594
▁stopped	-11595
▁ມັນເປັນ	-11596
លេខាធិការ	-11597
俺が	-11598
Air	-11599
យូរ	-11600
▁33	-11601
ansin	-11602
▁cute	-11603
ກັບຄືນ	-11604
▁tingnan	-11605
▁ສໍາລັບການ	-11606
じて	-11607
ສວນ	-11608
ສີ່	-11609
ໄລນ໌	-11610
▁Arch	-11611
ទ្ធិពល	-11612
ထူ	-11613
まさに	-11614
テスト	-11615
気に入	-11616
ette	-11617
▁muli	-11618
ដែលយើង	-11619
រួមមាន	-11620
ឥទ្ធិពល	-11621
▁pagiging	-11622
hern	-11623
▁ພັດ	-11624
▁ໃສ່	-11625
embro	-11626
ဖိအား	-11627
▁user	-11628
▁offer	-11629
64	-11630
ဟေ	-11631
ទាប	-11632
人々の	-11633
អ៊ីន	-11634
▁band	-11635
မှုတွေ	-11636
ដល់ការ	-11637
▁instr	-11638
▁デ	-11639
目標	-11640
lan	-11641
អ៊ែរ	-11642
▁ແຜນ	-11643
ahanan	-11644
▁များကို	-11645
▁តើ	-11646
agal	-11647
ចាត់	-11648
အလျောက်	-11649
しば	-11650
ウン	-11651
uer	-11652
ເມີ	-11653
agang	-11654
ដែលជា	-11655
▁round	-11656
▁create	-11657
PN	-11658
ຍຸດ	-11659
ຫັດ	-11660
ဘီး	-11661
▁6,	-11662
最後の	-11663
asya	-11664
istan	-11665
ເຊົ້າ	-11666
្ប៉ាញ	-11667
▁1,000	-11668
▁games	-11669
▁sapat	-11670
けた	-11671
特別	-11672
leg	-11673
အံ့	-11674
するの	-11675
ເຫຼັກ	-11676
▁coun	-11677
▁mill	-11678
だと思います	-11679
▁memory	-11680
ລາຍລະອຽດ	-11681
က်ဘ်ဆိုက်	-11682
▁@	-11683
アの	-11684
▁>>	-11685
▁စု	-11686
▁bal	-11687
でしたが	-11688
ິ່ນປົວ	-11689
▁အင်္ဂ	-11690
Remember	-11691
ໃຫ້ບໍລິການ	-11692
ຂາດ	-11693
ဆုံ	-11694
▁incred	-11695
ខាងក្រោម	-11696
po	-11697
▁៥	-11698
ety	-11699
lic	-11700
Very	-11701
ຊ່ວງ	-11702
▁See	-11703
irect	-11704
ucker	-11705
▁doub	-11706
ເປີດຕົວ	-11707
▁ບໍ່ໄດ້	-11708
ဝါယာကြိုး	-11709
ji	-11710
失敗	-11711
ເຕະ	-11712
▁pen	-11713
▁ກາຍ	-11714
usion	-11715
ប្បាយ	-11716
▁ရှင်	-11717
▁ເລື່ອງ	-11718
Applause	-11719
人と	-11720
Isn	-11721
ຄົດ	-11722
ຸ່ງ	-11723
តារ	-11724
▁4:	-11725
▁7,	-11726
▁SP	-11727
alam	-11728
ိန္ဒိယ	-11729
ကျစရိတ်	-11730
ិន្នន័យ	-11731
ស្រាវជ្រាវ	-11732
ណេ	-11733
だわ	-11734
▁10,	-11735
▁Wal	-11736
icago	-11737
できました	-11738
ective	-11739
មូលនិធិ	-11740
▁apprec	-11741
▁limang	-11742
▁presyo	-11743
မိုဘိုင်း	-11744
ການບໍລິການ	-11745
▁kasalanan	-11746
▁unibersidad	-11747
ຈໍ	-11748
ete	-11749
▁fa	-11750
ລ້ຽງ	-11751
ិថុន	-11752
တဦးတည်း	-11753
▁huling	-11754
ចុះហត្ថលេខ	-11755
ົກລັດຖະມົນຕີ	-11756
達が	-11757
igur	-11758
▁medic	-11759
osterone	-11760
ເຂົ້າໄປໃນ	-11761
បើកដំណើរការ	-11762
▁difference	-11763
ကဲ	-11764
ເກດ	-11765
▁li	-11766
メート	-11767
Kami	-11768
ulog	-11769
ປະຊາ	-11770
▁Top	-11771
▁ວິນ	-11772
လျှော့	-11773
▁drunk	-11774
▁လေ့လာ	-11775
▁position	-11776
▁မိုဘိုင်း	-11777
မှို	-11778
ໃນຕອນ	-11779
▁swim	-11780
必要がある	-11781
តួនាទី	-11782
ຍິ່ງໃຫຍ່	-11783
▁seconds	-11784
くれる	-11785
fast	-11786
ocus	-11787
▁incl	-11788
▁Maaari	-11789
▁econom	-11790
▁ឆ្លើយតប	-11791
リスク	-11792
▁Bet	-11793
▁sea	-11794
ត្រង់	-11795
▁East	-11796
▁Hold	-11797
asalita	-11798
ဗေဒ	-11799
▁ເປ	-11800
ဂရမ်	-11801
▁Dec	-11802
သောအခါ	-11803
▁အခြေခံ	-11804
ocr	-11805
名前は	-11806
ជាន់	-11807
▁ພັກ	-11808
elebr	-11809
▁Club	-11810
プル	-11811
手に入	-11812
ယှဉ်	-11813
▁cab	-11814
だけです	-11815
សម្រួល	-11816
▁truck	-11817
ネットワーク	-11818
ທີ່ໃຫຍ່	-11819
▁အွန်လိုင်း	-11820
▁៤	-11821
ຫນາ	-11822
សាល	-11823
▁cops	-11824
▁ຫຼັງ	-11825
កាណាដា	-11826
မွှ	-11827
▁ອີງ	-11828
ສະກຸນ	-11829
ကိစ္စ	-11830
どち	-11831
人で	-11832
mark	-11833
ictor	-11834
ပြင်း	-11835
▁ທັນວາ	-11836
န္ဓာကိုယ်	-11837
ເປັນທາງການ	-11838
▁殺	-11839
スコ	-11840
ပြေး	-11841
အော်	-11842
▁ຂຽນ	-11843
ပြည့်	-11844
အချင်း	-11845
▁hurry	-11846
▁screw	-11847
ົ່ມ	-11848
ាបៀន	-11849
▁သတ်	-11850
arant	-11851
យល់ដឹង	-11852
ພວກເຮົາຈະ	-11853
現代	-11854
言い	-11855
ako	-11856
▁Uh	-11857
▁皆さん	-11858
ໂຄສະນາ	-11859
▁private	-11860
▁កម្ពុជា	-11861
▁ເວົ້າວ່າ	-11862
若い	-11863
ဖျက်	-11864
▁ຍົກ	-11865
ໃນໂລກ	-11866
တာနဲ့	-11867
▁Egip	-11868
▁ຕຸລາ	-11869
▁kurso	-11870
▁ဒီလို	-11871
ເຮືອບິນ	-11872
▁ເດັກນ້ອຍ	-11873
နိုင်ပါသည်	-11874
အထည်	-11875
▁fur	-11876
ភាគច្រើន	-11877
▁malakas	-11878
証拠	-11879
Sup	-11880
好きな	-11881
icon	-11882
ລ້ອມ	-11883
▁ລົດ	-11884
່ຽວຊານ	-11885
▁standing	-11886
▁beginning	-11887
မာဏ	-11888
問題は	-11889
▁သတ္	-11890
ademy	-11891
င်မရာ	-11892
សិក្សា	-11893
▁books	-11894
ulasyon	-11895
ကြေးငွေ	-11896
▁Martin	-11897
▁អ្នកអាច	-11898
ရှင်းလင်း	-11899
▁ທີ່ດີທີ່ສຸດ	-11900
事件	-11901
Mal	-11902
post	-11903
ម្តង	-11904
ကြသည်	-11905
ិរញ្ញ	-11906
▁grab	-11907
ပြချက်	-11908
▁Vegas	-11909
គ្រាន់តែ	-11910
▁nagsabi	-11911
おう	-11912
行き	-11913
usin	-11914
ពេញល	-11915
▁mir	-11916
▁ແຮງ	-11917
▁Rome	-11918
することで	-11919
iwalay	-11920
តែងតាំង	-11921
ោស	-11922
▁地	-11923
iro	-11924
កេន	-11925
大統領	-11926
▁Skal	-11927
ពេញលេញ	-11928
▁halip	-11929
အဘယ်သူမျှမ	-11930
FF	-11931
មាស	-11932
▁Su	-11933
igan	-11934
ulot	-11935
ထွေး	-11936
▁ພໍ່	-11937
យោបល់	-11938
▁jack	-11939
ဟောင်း	-11940
ແຄ	-11941
ຫລາດ	-11942
ခိုး	-11943
▁ຫມາ	-11944
ທີສອງ	-11945
ပြန့်	-11946
▁magic	-11947
を失	-11948
医師	-11949
bul	-11950
unes	-11951
ទៅជា	-11952
វៀតណាម	-11953
▁ມະຊາດ	-11954
▁obvious	-11955
នឹងត្រូវបាន	-11956
尋ね	-11957
ນິກ	-11958
Once	-11959
▁ວັດ	-11960
ຖ້າຫາກ	-11961
▁chick	-11962
▁napaka	-11963
ကျွမ်းကျင်	-11964
方向	-11965
how	-11966
េសា	-11967
ほしい	-11968
ំបំផុត	-11969
ແລກປ່ຽນ	-11970
ရောင်းချ	-11971
▁decision	-11972
cs	-11973
ငါ့	-11974
រួច	-11975
科学者	-11976
vely	-11977
▁တန်	-11978
▁彼らは	-11979
illed	-11980
コミュニティ	-11981
fit	-11982
▁Da	-11983
を使う	-11984
▁ກິດ	-11985
したのは	-11986
itten	-11987
ចំណេញ	-11988
ရီးယား	-11989
រង់ចាំ	-11990
▁study	-11991
အပါအဝင်	-11992
▁、	-11993
少なく	-11994
ရိပ်	-11995
▁အထိ	-11996
ooper	-11997
▁သိပ်	-11998
▁Inter	-11999
▁theory	-12000
キロ	-12001
自分が	-12002
ໂດລາ	-12003
ပြတ်	-12004
ស្តី	-12005
▁လေး	-12006
arden	-12007
ayang	-12008
ສະອາດ	-12009
▁force	-12010
agdagan	-12011
နယ်ဇင်း	-12012
▁အတွင်း	-12013
ခရီးသွား	-12014
Something	-12015
▁kapangyarihan	-12016
no	-12017
ຊະ	-12018
icy	-12019
ເນັດ	-12020
ပေးရန်	-12021
ternoon	-12022
ကြည့်ရှု	-12023
မှုနှင့်	-12024
ឧទ	-12025
aso	-12026
▁ខែម	-12027
ingbo	-12028
ថាមពល	-12029
▁ກຸ່ມ	-12030
လှောင်	-12031
រឹងមាំ	-12032
▁plugin	-12033
▁ລັດຖະບານ	-12034
ຸບ	-12035
ダン	-12036
ຸ້ງ	-12037
ဈေး	-12038
するのです	-12039
ルド	-12040
絶対	-12041
arry	-12042
ដោយការ	-12043
បារាំង	-12044
▁Carol	-12045
▁analy	-12046
▁ပုံစံ	-12047
▁ចំនួន	-12048
▁relationship	-12049
時には	-12050
ຕ່ໍາ	-12051
ເຊີນ	-12052
သန့်	-12053
သလား	-12054
ector	-12055
▁ilan	-12056
▁kasi	-12057
▁Jacob	-12058
トラ	-12059
ុយក្រ	-12060
▁Henry	-12061
▁bother	-12062
▁彼	-12063
▁sy	-12064
សាំង	-12065
興味深い	-12066
arent	-12067
ender	-12068
ຫະພູມ	-12069
▁Pags	-12070
រថយន្ត	-12071
សម្រាក	-12072
វិទ្យាស	-12073
ຈຸດປະສົງ	-12074
▁suppose	-12075
▁finished	-12076
ເລ່ຍ	-12077
မွေ့	-12078
られました	-12079
▁kaming	-12080
▁lawyer	-12081
▁အဘယ်သူမျှမ	-12082
យី	-12083
課題	-12084
ela	-12085
ស្រឡ	-12086
ប្រហារ	-12087
iyembro	-12088
▁password	-12089
នេះត្រូវបាន	-12090
▁ボ	-12091
ສົດ	-12092
ື້ມ	-12093
ထရီ	-12094
▁38	-12095
Call	-12096
ugon	-12097
ແຂວງ	-12098
▁ມັງກອນ	-12099
気付	-12100
相手	-12101
ဂီတ	-12102
osis	-12103
▁tree	-12104
▁မျိုး	-12105
ဖြတ်တောက်	-12106
CH	-12107
ຟນ	-12108
1">	-12109
▁Flor	-12110
▁calm	-12111
▁ແຜ່ນ	-12112
estern	-12113
Someone	-12114
ဖို့လို	-12115
ធំបំផុត	-12116
▁charge	-12117
▁ရောင်း	-12118
▁កម្មវិធី	-12119
スー	-12120
日に	-12121
nap	-12122
▁UK	-12123
わかる	-12124
ຣັ່ງ	-12125
▁Law	-12126
ချက်ကို	-12127
အခြေအနေ	-12128
▁ຂອງຂ້ອຍ	-12129
▁ໃນເດືອນ	-12130
အမှတ်တံဆိပ်	-12131
RI	-12132
yu	-12133
お金	-12134
ຍີ່	-12135
ល្ល	-12136
သဘာဝ	-12137
▁Cont	-12138
▁skin	-12139
ພາຍໃຕ້	-12140
▁global	-12141
လိမ့်မည်	-12142
らを	-12143
を作る	-12144
ရာသီ	-12145
បាត់	-12146
ເຫມາະ	-12147
ဖွင့်	-12148
គ្នា។	-12149
▁labas	-12150
▁kayong	-12151
▁fighting	-12152
ui	-12153
次に	-12154
ငြာ	-12155
ဇင်	-12156
ម្ព	-12157
្សរ	-12158
ayad	-12159
ຖິ່ນ	-12160
ောကျ	-12161
្មេង	-12162
▁ភាព	-12163
のことを	-12164
ပုံကို	-12165
လက္ခဏာ	-12166
ຸນຫະພູມ	-12167
ុយក្រែន	-12168
uma	-12169
▁vac	-12170
▁godd	-12171
ຄິດວ່າ	-12172
▁chall	-12173
▁stero	-12174
られています	-12175
အင်ဂျင်	-12176
▁Office	-12177
▁ប្រអប់	-12178
ພິຈາລະນາ	-12179
ကျွန်မတို့	-12180
.)	-12181
VE	-12182
Ser	-12183
alaro	-12184
ຄົ້ນຫາ	-12185
▁calls	-12186
စက်မှုလုပ်ငန်း	-12187
គត់	-12188
▁65	-12189
完全に	-12190
合う	-12191
យប់	-12192
iral	-12193
ខ្លះ	-12194
នាវា	-12195
ることで	-12196
under	-12197
စစ်ခြင်း	-12198
▁perhaps	-12199
ຄວາມປອດໄພ	-12200
▁karaniwang	-12201
全体	-12202
▁よく	-12203
ပေးချေ	-12204
ရှယ်ယာ	-12205
▁impress	-12206
▁သူတို့က	-12207
▁listahan	-12208
▁Seychelles	-12209
予測	-12210
▁CD	-12211
戻って	-12212
akan	-12213
ທ້ອງ	-12214
▁သော	-12215
izing	-12216
ဖြည့်	-12217
▁ကစား	-12218
ាក្នុង	-12219
▁result	-12220
▁ຈໍ	-12221
ခြည်	-12222
▁Any	-12223
ublic	-12224
▁Sant	-12225
Bilang	-12226
သုတေသန	-12227
imulang	-12228
ဆုံးရှုံး	-12229
ການປ່ຽນແປງ	-12230
ការផ្លាស់ប្តូរ	-12231
ុំព	-12232
▁最も	-12233
▁ປະຈໍາ	-12234
▁ဖုန်း	-12235
▁မိနစ်	-12236
ເຮັດໄດ້	-12237
အဆောက်အ	-12238
▁Walang	-12239
▁pictures	-12240
ထုတ်ကုန်များ	-12241
▁中	-12242
ぶん	-12243
方の	-12244
深く	-12245
ဂရီ	-12246
▁EU	-12247
field	-12248
ឯកសារ	-12249
▁fund	-12250
Maaari	-12251
ທຸກຢ່າງ	-12252
ម៉ាស៊ីន	-12253
ប្រសាសន៍	-12254
វាយតម្លៃ	-12255
▁stories	-12256
▁suspect	-12257
▁pelikula	-12258
▁ດັ່ງນັ້ນ	-12259
▁လျှပ်စစ်	-12260
ဖြစ်ကြသည်။	-12261
អត្ថប្រយោជន៍	-12262
▁saf	-12263
arang	-12264
ផ្តួច	-12265
▁အသစ်	-12266
မီဒီယာ	-12267
▁panel	-12268
▁magkag	-12269
itz	-12270
້ວງ	-12271
▁EA	-12272
▁Fe	-12273
っくり	-12274
ဥာဏ်	-12275
▁ble	-12276
ຂະບວນ	-12277
ហាវ៉ៃ	-12278
ិថុនា	-12279
▁seat	-12280
▁Cristo	-12281
▁ມິຖຸນາ	-12282
▁animals	-12283
▁ကျေးဇူး	-12284
▁makikita	-12285
▁Foundation	-12286
88	-12287
代わり	-12288
▁1.5	-12289
▁ອັດ	-12290
ipped	-12291
Google	-12292
▁agree	-12293
▁បន្ទាប់ពី	-12294
暴力	-12295
ຣັດ	-12296
▁人間	-12297
▁女性	-12298
သောက်	-12299
ឆ្ពោះ	-12300
▁astr	-12301
ဖောင်း	-12302
▁Train	-12303
នេះគឺជា	-12304
▁island	-12305
ッパ	-12306
残念	-12307
ອັກ	-12308
ານາ	-12309
zhou	-12310
ណាក៏ដោយ	-12311
ថែ	-12312
bag	-12313
▁ຄາດ	-12314
▁driver	-12315
SP	-12316
▁ကူ	-12317
ငှား	-12318
▁Tex	-12319
▁ຄ່າ	-12320
のところ	-12321
▁Beach	-12322
父は	-12323
▁!!	-12324
起きた	-12325
▁rev	-12326
▁proy	-12327
▁themselves	-12328
複雑な	-12329
▁sho	-12330
▁អាច	-12331
▁私たち	-12332
cious	-12333
ສິດທິ	-12334
ailable	-12335
တန်ဖိုး	-12336
▁character	-12337
宗教	-12338
限り	-12339
ops	-12340
သူက	-12341
ちょう	-12342
▁ຖານ	-12343
ເລືອດ	-12344
知っている	-12345
aharap	-12346
▁bonus	-12347
テクノロジー	-12348
▁object	-12349
ご覧	-12350
捨て	-12351
消費	-12352
銀行	-12353
ると思	-12354
uild	-12355
လှယ်	-12356
▁pup	-12357
▁tim	-12358
គម្រប	-12359
▁ຫນ່ວຍ	-12360
▁ຄອບຄົວ	-12361
ឆ្លងកាត់	-12362
ពិភាក្សា	-12363
ຄວາມສາມາດ	-12364
DNA	-12365
awei	-12366
▁mail	-12367
としている	-12368
លើសពីនេះ	-12369
▁ໃນວັນທີ	-12370
▁attention	-12371
ជំងឺរាតត្បាត	-12372
bi	-12373
▁ほ	-12374
ビル	-12375
度は	-12376
ກູ້	-12377
ທາດ	-12378
ຜ້າ	-12379
んだよ	-12380
最後に	-12381
သင်္	-12382
មីនា	-12383
▁Kar	-12384
▁opis	-12385
▁proseso	-12386
ເຄື່ອນໄຫວ	-12387
▁Dem	-12388
▁ຄຸນ	-12389
メディア	-12390
ငါး	-12391
その後	-12392
のため	-12393
umin	-12394
▁Bus	-12395
▁ສິນ	-12396
▁dude	-12397
▁ຈົ່ງ	-12398
ບົດຄວາມ	-12399
▁witness	-12400
▁ដុល្លារ	-12401
မြန်နှုန်း	-12402
ごめ	-12403
希望	-12404
:30	-12405
gad	-12406
▁AT	-12407
▁地球	-12408
を感じ	-12409
話した	-12410
ໂຈມຕີ	-12411
▁disk	-12412
▁loves	-12413
မှာတော့	-12414
ថល	-12415
ワー	-12416
but	-12417
▁Ol	-12418
▁ok	-12419
ສະຫນາ	-12420
▁အိပ်	-12421
▁အဖွဲ့	-12422
សន្និសីទ	-12423
EX	-12424
かの	-12425
度も	-12426
ແກຼ	-12427
ッセージ	-12428
နေသော	-12429
្រ្តី	-12430
ໃຊ້ໄດ້	-12431
▁ဆိုတာ	-12432
▁killer	-12433
▁ເພື່ອນ	-12434
▁McKnight	-12435
ដ៏ល្អបំផុត	-12436
ក្នុងអំឡុងពេល	-12437
いだ	-12438
わね	-12439
作業	-12440
実に	-12441
▁CEO	-12442
▁bul	-12443
oeing	-12444
▁pagm	-12445
ເຫດການ	-12446
ພາກສ່ວນ	-12447
လို့ပါ။	-12448
ដ៏គួរឱ្យ	-12449
▁Profess	-12450
飛び	-12451
ខែម	-12452
▁ທິ	-12453
を変え	-12454
間違い	-12455
▁Pul	-12456
iment	-12457
▁mons	-12458
နှစ်ဦး	-12459
လိမ့်မည်	-12460
▁Charlie	-12461
ကမ်းလှမ်း	-12462
▁European	-12463
အများအပြား	-12464
▁ခုနှစ်တွင်	-12465
ភូម	-12466
យីហោ	-12467
angha	-12468
▁Sorry	-12469
Salamat	-12470
Everyone	-12471
ផ្តួចផ្តើម	-12472
▁pakikipag	-12473
仲間	-12474
物が	-12475
▁pant	-12476
▁အိတ်	-12477
▁hungry	-12478
▁mahalaga	-12479
▁edukasyon	-12480
ご存	-12481
子は	-12482
iti	-12483
年前に	-12484
▁ここに	-12485
▁Tell	-12486
▁rich	-12487
ປົກຄອງ	-12488
អ្នកអាច	-12489
ចូលចិត្ត	-12490
▁ເຮັດວຽກ	-12491
Hel	-12492
▁ဘဝ	-12493
▁crime	-12494
▁susunod	-12495
စုစုပေါင်း	-12496
▁katotohanan	-12497
モン	-12498
集団	-12499
ukl	-12500
ເມວ	-12501
ដុំ	-12502
まるで	-12503
ဝှက်	-12504
▁Gal	-12505
▁civ	-12506
asing	-12507
မဖြစ်	-12508
្បាប់	-12509
ច្បាស់	-12510
▁liked	-12511
▁update	-12512
行け	-12513
▁Ts	-12514
▁စင်	-12515
antong	-12516
usugan	-12517
▁Health	-12518
ပစ္စည်းကိရိယာ	-12519
ទ្វីបអាហ្រ្វិក	-12520
▁が	-12521
Big	-12522
າທີ	-12523
အဘိ	-12524
それぞれ	-12525
▁2030	-12526
▁Captain	-12527
များနှင့်အတူ	-12528
:0	-12529
空間	-12530
達の	-12531
ໂຣກ	-12532
ក្ក	-12533
▁ໄພ	-12534
と一緒に	-12535
ဧရိယာ	-12536
▁Fire	-12537
▁Mont	-12538
-15	-12539
ວິນ	-12540
ទោះ	-12541
ですよ	-12542
▁ຊອກ	-12543
phone	-12544
▁ကော်	-12545
▁တို့	-12546
erdote	-12547
ရည်ရွယ်	-12548
▁gawain	-12549
▁Chicago	-12550
ທີ່ສໍາຄັນ	-12551
▁ខណៈពេលដែល	-12552
En	-12553
▁SA	-12554
▁mark	-12555
▁Assoc	-12556
▁paglalakbay	-12557
▁死	-12558
Didn	-12559
ຄວ້າ	-12560
しかった	-12561
ប្រសិទ្ធភាព	-12562
ິສ	-12563
みの	-12564
一体	-12565
ຊວງ	-12566
▁Ha	-12567
សីហា	-12568
▁Jan	-12569
គ្រឿង	-12570
▁သန်း	-12571
▁assist	-12572
▁General	-12573
広が	-12574
決定	-12575
物は	-12576
▁37	-12577
▁君は	-12578
အမြစ်	-12579
ជំហាន	-12580
សហការ	-12581
▁စတင်	-12582
▁ຂໍ້ມູນ	-12583
ນະຄອນຫຼວງ	-12584
လေကြောင်း	-12585
ឹប	-12586
々の	-12587
とい	-12588
待て	-12589
ແພງ	-12590
ခတ်	-12591
▁pm	-12592
ແກຼມ	-12593
ិបាត	-12594
▁Hun	-12595
▁hat	-12596
▁ສູນ	-12597
▁これが	-12598
▁Bern	-12599
▁rules	-12600
ស្រាអែល	-12601
▁出	-12602
わよ	-12603
▁ໂອ	-12604
いいえ	-12605
Stay	-12606
ຄືກັບ	-12607
ဂုတ်လ	-12608
▁Siya	-12609
▁magl	-12610
ability	-12611
aysayan	-12612
ປິ່ນປົວ	-12613
ລົງທະບຽນ	-12614
ូឡ	-12615
▁တူ	-12616
飛行機	-12617
မှုက	-12618
Think	-12619
icide	-12620
▁bawa	-12621
▁magh	-12622
いています	-12623
ensahe	-12624
ធ្លាប់	-12625
▁Isang	-12626
▁ourselves	-12627
ダイ	-12628
打ち	-12629
訓練	-12630
ayin	-12631
▁ບອກ	-12632
▁ပညာ	-12633
unlad	-12634
できるのです	-12635
reaming	-12636
▁quickly	-12637
ແຫ	-12638
メン	-12639
ကျြ	-12640
္ကျ	-12641
つけた	-12642
ອ້າງ	-12643
otion	-12644
▁ລະບົບ	-12645
▁narito	-12646
▁ອົງການ	-12647
pet	-12648
mond	-12649
ຊ່ອງ	-12650
▁van	-12651
▁Live	-12652
មិនអាច	-12653
▁ສະຖານ	-12654
ເຂັ້ມແຂງ	-12655
▁hakbang	-12656
▁ပြန်လည်	-12657
▁consider	-12658
BD	-12659
UT	-12660
共有	-12661
pir	-12662
▁分か	-12663
utions	-12664
មិនមាន	-12665
▁product	-12666
▁ຄວາມວ່າ	-12667
▁ແລ	-12668
▁fat	-12669
ង់ហ្ស	-12670
することは	-12671
aching	-12672
ရှိသော	-12673
▁ພຽງແຕ່	-12674
▁ကိ	-12675
▁ຊຸດ	-12676
ធ្ងន់	-12677
ນອກຈາກ	-12678
ရွိုက်	-12679
▁apolog	-12680
ຄ່າໃຊ້ຈ່າຍ	-12681
86	-12682
ハン	-12683
使う	-12684
ាលើ	-12685
ライン	-12686
ကြယ်	-12687
▁Mah	-12688
▁အဓိက	-12689
▁event	-12690
▁nakik	-12691
ခရီးစဉ်	-12692
▁modern	-12693
ីដ	-12694
の数	-12695
内に	-12696
Rel	-12697
に向か	-12698
方法を	-12699
▁dise	-12700
များမှ	-12701
▁demon	-12702
ຕໍາແຫນ່ງ	-12703
ប្រសាសន៍ថា	-12704
ဗာ	-12705
を出	-12706
ပြာ	-12707
ភាសា	-12708
▁Dom	-12709
ລາຍການ	-12710
အားကစား	-12711
ស្រឡាញ់	-12712
နိုင်သည်	-12713
▁afternoon	-12714
っぱ	-12715
isc	-12716
ໂຄງ	-12717
မ္မ	-12718
សំប	-12719
だけだ	-12720
anced	-12721
▁Father	-12722
▁သိပ္ပံ	-12723
ဘာသာစကား	-12724
ល្លឺម៉ង់	-12725
ប្រជាជាតិ	-12726
Ed	-12727
iin	-12728
pit	-12729
ສິບ	-12730
ပြသ	-12731
alye	-12732
print	-12733
action	-12734
ចំពោះការ	-12735
▁ມັນແມ່ນ	-12736
▁လုပ်ငန်း	-12737
▁pagpipilian	-12738
テン	-12739
ヒー	-12740
要素	-12741
ဂတ်	-12742
▁AM	-12743
▁誰も	-12744
ကျေး	-12745
んですか	-12746
▁ອ່ານ	-12747
▁batas	-12748
▁knock	-12749
ဆိုတော့	-12750
よい	-12751
反対	-12752
▁Ra	-12753
▁cy	-12754
ລິມານ	-12755
လက်ရှိ	-12756
▁dying	-12757
ຮັບຜິດຊອບ	-12758
យ៉ាងណាក៏ដោយ	-12759
▁本	-12760
zen	-12761
အလဲ	-12762
lett	-12763
ukas	-12764
▁ဆန်း	-12765
ຕ້ອນຮັບ	-12766
▁epekto	-12767
▁តាមរយៈ	-12768
អេស្ប៉ាញ	-12769
▁mission	-12770
万ドル	-12771
▁20%	-12772
ລະບາດ	-12773
▁Like	-12774
▁review	-12775
ulations	-12776
▁welcome	-12777
များနှင့်	-12778
លានយន្តហោះ	-12779
かく	-12780
教え	-12781
Nice	-12782
▁tea	-12783
စီးရီး	-12784
▁Mexico	-12785
အကွာအဝေး	-12786
▁particular	-12787
過程	-12788
▁Bur	-12789
▁ຈັກ	-12790
ufact	-12791
▁Matt	-12792
▁Pagk	-12793
ession	-12794
ການບິນ	-12795
တော်မူ	-12796
▁likes	-12797
▁ໃນວັນ	-12798
正確	-12799
部の	-12800
ແດນ	-12801
បំព	-12802
さない	-12803
itions	-12804
ຕົກລົງ	-12805
លំដាប់	-12806
▁reach	-12807
▁ក្រុម	-12808
ຊ່ຽວຊານ	-12809
ទិន្នន័យ	-12810
▁magbigay	-12811
များနှင့်အ	-12812
▁kamatayan	-12813
ហៅ	-12814
▁水	-12815
で見	-12816
クロ	-12817
秘密	-12818
リング	-12819
uten	-12820
▁err	-12821
ayahan	-12822
ပတ်သက်	-12823
▁beach	-12824
▁ປະກອບ	-12825
ເຕີເນັດ	-12826
▁Moises	-12827
▁fuckin	-12828
▁magkagayo	-12829
性の	-12830
ဂျစ်	-12831
▁ulo	-12832
をもたら	-12833
place	-12834
បច្បាប់	-12835
▁language	-12836
▁pamamaraan	-12837
ចិ	-12838
を求	-12839
ແລນ	-12840
▁64	-12841
ទាញយក	-12842
▁vers	-12843
ធ្វើជា	-12844
អាជ្ញាធ	-12845
ခြင်းကို	-12846
ង់ហ្សានី	-12847
▁walking	-12848
ဖြစ်ပါသည်။	-12849
အပိုဆု	-12850
អំពីការ	-12851
わる	-12852
udi	-12853
▁beer	-12854
▁bund	-12855
ເບື້ອງ	-12856
▁mechan	-12857
▁saserdote	-12858
9%	-12859
かせ	-12860
ガー	-12861
手術	-12862
▁OEM	-12863
တုန်းက	-12864
ៀងរាល់	-12865
ວ່າເປັນ	-12866
အကောင့်	-12867
▁lovely	-12868
ပြောင်းအလဲ	-12869
ប្រាក់ចំណូល	-12870
スに	-12871
電気	-12872
▁Ba	-12873
メール	-12874
▁bak	-12875
▁ပင်	-12876
ເວລາດ	-12877
▁places	-12878
កត់សម្គាល់	-12879
នៅក្នុងការ	-12880
▁ຫຼັງຈາກນັ້ນ	-12881
Rob	-12882
isan	-12883
လော့	-12884
▁Ins	-12885
▁ရပ်	-12886
အရာကို	-12887
ចម្រុះ	-12888
をした	-12889
elly	-12890
ulin	-12891
ained	-12892
konom	-12893
られている	-12894
▁komento	-12895
ထည့်သွင်း	-12896
ត្រឹមត្រូវ	-12897
);	-12898
ທັດ	-12899
ຫຼວດ	-12900
ခုန်	-12901
សម្ល	-12902
▁ແທ້	-12903
fully	-12904
វិជ្ជ	-12905
▁ຫມາກ	-12906
ucation	-12907
စိတ်ကူး	-12908
▁俺は	-12909
▁Den	-12910
▁Kom	-12911
▁Tok	-12912
▁မျက်	-12913
ပေမယ့်	-12914
▁local	-12915
▁ထောက်	-12916
▁ပါဝင်	-12917
▁ជាមួយ	-12918
အဖွဲ့အစည်း	-12919
▁ကျွန်တော့	-12920
度の	-12921
繋が	-12922
TED	-12923
ល្បង	-12924
▁ထက်	-12925
ຫນ່ວຍ	-12926
▁drugs	-12927
ရောင်ခြည်	-12928
AK	-12929
Ph	-12930
上手	-12931
just	-12932
osto	-12933
▁Squ	-12934
しまった	-12935
が必要です	-12936
▁Santa	-12937
▁angry	-12938
ဖယ်ရှား	-12939
ស្ថានភាព	-12940
ulf	-12941
ແພດ	-12942
ទូក	-12943
確かに	-12944
iced	-12945
apter	-12946
▁ဖို့	-12947
▁အသေး	-12948
ប៉ុន្មាន	-12949
▁medical	-12950
ປະຫວັດສາດ	-12951
発展	-12952
▁Pe	-12953
してきた	-12954
▁Server	-12955
ပိုင်ဆိုင်	-12956
ប្រតិបត្តិក	-12957
ຢ່າງໃດກໍ່ຕາມ	-12958
パン	-12959
ett	-12960
sto	-12961
事です	-12962
Amer	-12963
aryo	-12964
ປຸ່ນ	-12965
បង្រ	-12966
▁Ell	-12967
▁buh	-12968
どういう	-12969
▁atin	-12970
▁私たちが	-12971
▁Wooden	-12972
▁kumuha	-12973
9)	-12974
米国	-12975
នៅឯ	-12976
ກິລາ	-12977
ຕໍ່າ	-12978
めました	-12979
ົາຫຼີ	-12980
ီလက်ထ	-12981
ដ៏មាន	-12982
ព្យាប	-12983
▁cult	-12984
▁pers	-12985
ထိုကဲ့သို့သော	-12986
ပီ	-12987
パイ	-12988
兄弟	-12989
時は	-12990
▁wood	-12991
▁ပြီး	-12992
ហិរញ្ញ	-12993
▁ສິງຫາ	-12994
▁ອາຫານ	-12995
គណៈកម្ម	-12996
▁Virgin	-12997
▁center	-12998
▁ແຕ່ວ່າ	-12999
期待	-13000
会った	-13001
onel	-13002
▁Got	-13003
ពុម្ព	-13004
မှုန့်	-13005
နိုင်သည်။	-13006
ຄົບ	-13007
▁တိ	-13008
ーリー	-13009
elle	-13010
ချော	-13011
▁တက်	-13012
လိပ်စာ	-13013
▁named	-13014
OL	-13015
RC	-13016
▁၀	-13017
かげ	-13018
瞬間	-13019
Mak	-13020
ាម៉	-13021
ギリス	-13022
誰かが	-13023
ຂວາງ	-13024
ລະດູ	-13025
inter	-13026
မှုနဲ့	-13027
ខាងមុខ	-13028
▁immed	-13029
▁broken	-13030
▁privacy	-13031
▁thousand	-13032
▁ຫຼາຍກວ່າ	-13033
▁ເທົ່ານັ້ນ	-13034
បន្ទាប់ពីការ	-13035
1%	-13036
使用	-13037
大変	-13038
ဘတ်	-13039
▁AI	-13040
なもの	-13041
ປະຕູ	-13042
ອອກມາ	-13043
စလုံး	-13044
▁Open	-13045
စွမ်းဆောင်ရည်	-13046
子の	-13047
Sam	-13048
pal	-13049
世界を	-13050
ເວທີ	-13051
▁Kin	-13052
ຄັ້ງທໍາອິດ	-13053
ພວກເຂົາເຈົ້າ	-13054
を追	-13055
時間が	-13056
▁bug	-13057
oking	-13058
▁wine	-13059
ဆီဂျင်	-13060
▁အာရုံ	-13061
ຮູບເງົາ	-13062
ព្យាបាល	-13063
▁celebr	-13064
▁ladies	-13065
▁ເພາະວ່າ	-13066
▁pagkakaroon	-13067
▁«	-13068
なきゃ	-13069
អតីត	-13070
Since	-13071
epend	-13072
▁horr	-13073
▁serv	-13074
▁Texas	-13075
ossible	-13076
▁sleeping	-13077
機関	-13078
▁ສຸກ	-13079
វ៉ាន់	-13080
▁Step	-13081
▁farm	-13082
▁starting	-13083
96	-13084
ໂບ	-13085
Car	-13086
bah	-13087
obe	-13088
ကိုက်	-13089
ပါပြီ။	-13090
រួមចំណែក	-13091
ကွန်ပျူတာ	-13092
4">	-13093
ທົນ	-13094
ແວດ	-13095
▁ジェ	-13096
唯一の	-13097
▁driving	-13098
▁posisyon	-13099
Wow	-13100
uly	-13101
ທວນ	-13102
きっと	-13103
ようと	-13104
人たち	-13105
▁unf	-13106
ansang	-13107
ពង្រឹង	-13108
▁honor	-13109
▁necess	-13110
▁surprise	-13111
ຂາ	-13112
エイ	-13113
映像	-13114
時の	-13115
ເດດ	-13116
▁ibin	-13117
Anyway	-13118
တပ်ဆင်	-13119
▁Boeing	-13120
▁author	-13121
ដំណោះស្រាយ	-13122
ani	-13123
epar	-13124
ាធិប	-13125
ທໍາມະ	-13126
anggit	-13127
ຄໍາວ່າ	-13128
ស្លាប់	-13129
▁ပိုပြီး	-13130
3">	-13131
▁MS	-13132
▁WE	-13133
スタン	-13134
សិល្បៈ	-13135
▁cause	-13136
အများစု	-13137
តភ្ជាប់	-13138
ស្រស់ស្អាត	-13139
ずに	-13140
はある	-13141
xBet	-13142
ကျန်	-13143
ព្យាករ	-13144
▁နိုင်	-13145
▁Richard	-13146
▁involved	-13147
ឯង	-13148
ror	-13149
kins	-13150
ເກາະ	-13151
ឆាប់	-13152
▁အပူ	-13153
によると	-13154
データを	-13155
▁ແມັດ	-13156
▁အစား	-13157
▁នាយក	-13158
▁Stand	-13159
▁ແຫນ່ງ	-13160
▁kumain	-13161
▁tagapag	-13162
3%	-13163
向け	-13164
▁rom	-13165
ຜູ້ນໍາ	-13166
してください	-13167
ibusyon	-13168
ພຣະເຈົ້າ	-13169
Pa	-13170
ဘိ	-13171
どん	-13172
半分	-13173
ສັກ	-13174
oles	-13175
ကယ့်	-13176
ထိပ်တန်း	-13177
▁listening	-13178
သက်ရောက်မှု	-13179
យ៍	-13180
ທາຍ	-13181
នាស	-13182
▁ປາ	-13183
မိမိ	-13184
▁(1)	-13185
▁Atl	-13186
▁Dig	-13187
▁Sab	-13188
▁Mill	-13189
▁ເມສາ	-13190
Should	-13191
akaiba	-13192
irahan	-13193
▁ឥឡូវនេះ	-13194
▁Software	-13195
▁internet	-13196
នៅក្នុងតំបន់	-13197
上に	-13198
誕生	-13199
ပယ်	-13200
▁ဘု	-13201
▁Cle	-13202
わけです	-13203
▁bastard	-13204
つけて	-13205
ヨーロ	-13206
aron	-13207
puan	-13208
▁Leg	-13209
▁នាង	-13210
▁Hard	-13211
▁Brown	-13212
▁choose	-13213
▁simula	-13214
▁ກໍລະກົດ	-13215
▁marriage	-13216
သည်တို့ကို	-13217
ပိုင်းဆိုင်ရာ	-13218
▁高	-13219
の下	-13220
平均	-13221
段階	-13222
ປານ	-13223
などの	-13224
ators	-13225
ヨーロッパ	-13226
▁horse	-13227
を示	-13228
処理	-13229
ວານ	-13230
akbo	-13231
ករណី	-13232
▁Tel	-13233
▁nakas	-13234
▁Egipto	-13235
▁player	-13236
zo	-13237
ဝိ	-13238
ដេ	-13239
自己	-13240
ລໍາ	-13241
upad	-13242
ការរ	-13243
▁2007	-13244
imbang	-13245
ources	-13246
▁color	-13247
ແບ່ງປັນ	-13248
បញ្ជាទិញ	-13249
▁regular	-13250
ប៉ះពាល់ដល់	-13251
ស្របច្បាប់	-13252
ဖြစ်ကြောင်း	-13253
CD	-13254
້ຍ	-13255
វត	-13256
600	-13257
▁oh	-13258
レベル	-13259
ແລະມີ	-13260
awalan	-13261
▁enemy	-13262
▁idiot	-13263
ឆ្ពោះទៅ	-13264
ສາທາລະນະ	-13265
យូ	-13266
▁Fed	-13267
▁nah	-13268
▁tut	-13269
ក៏ដោយ	-13270
តំណែង	-13271
▁Blue	-13272
စောင့်	-13273
▁virus	-13274
ຄອມພິວເຕີ	-13275
▁definitely	-13276
ni	-13277
ໃດໆ	-13278
ရတာ	-13279
▁SD	-13280
ほどの	-13281
omen	-13282
▁lip	-13283
ဆက်ဆံ	-13284
အစွမ်း	-13285
များသည်	-13286
တည်ထောင်	-13287
Se	-13288
ឹត	-13289
▁၃	-13290
くて	-13291
ソー	-13292
ສື່	-13293
ပရို	-13294
ូវីដ	-13295
▁Lev	-13296
▁batay	-13297
▁champ	-13298
ຄວາມຈິງ	-13299
▁missed	-13300
▁Florida	-13301
▁darling	-13302
Sometimes	-13303
လုပ်ဆောင်	-13304
ສ້າງຕັ້ງຂຶ້ນ	-13305
iP	-13306
学習	-13307
ຈານ	-13308
▁Lo	-13309
かつて	-13310
တည်ပြု	-13311
▁nguni	-13312
ທີ່ໃຊ້ເວລາ	-13313
ပိုင်ခွင့်	-13314
ລັ	-13315
評価	-13316
車を	-13317
ឡើយ	-13318
▁ຖື	-13319
oscow	-13320
▁Some	-13321
▁joke	-13322
▁ພື້ນ	-13323
yester	-13324
▁အမှတ်	-13325
ຫ້ອງການ	-13326
▁County	-13327
▁officer	-13328
▁ក៏ដូចជា	-13329
ເຄື່ອງຈັກ	-13330
របស់គាត់។	-13331
▁Japanese	-13332
▁platform	-13333
スペ	-13334
近づ	-13335
iano	-13336
ungo	-13337
arera	-13338
လောင်	-13339
အလမ်း	-13340
akilala	-13341
ອຸດສາຫະກໍາ	-13342
!”	-13343
だね	-13344
写真を	-13345
持って	-13346
ការ៉	-13347
istro	-13348
▁army	-13349
ော်ငြာ	-13350
atagpuan	-13351
လုပ်ဖို့	-13352
子が	-13353
▁CR	-13354
を与え	-13355
ecut	-13356
ទំនើប	-13357
ប្រភព	-13358
ແວດລ້ອມ	-13359
ကောင်းစွာ	-13360
TX	-13361
学び	-13362
ued	-13363
ibbe	-13364
▁Cla	-13365
▁eff	-13366
▁ຢ່າ	-13367
そういう	-13368
▁spot	-13369
resent	-13370
ultura	-13371
▁silang	-13372
ပြောပါတယ်	-13373
▁အများကြီး	-13374
oly	-13375
ິຕິ	-13376
刑務所	-13377
oker	-13378
ဆည်း	-13379
▁ສາດ	-13380
athan	-13381
pleto	-13382
ໂນມັດ	-13383
နားလည်	-13384
▁cancer	-13385
▁ဆက်သွယ်	-13386
ពាណិជ្ជករ	-13387
ការពិនិត្យ	-13388
困難	-13389
itr	-13390
acks	-13391
គ្រី	-13392
iisip	-13393
▁scene	-13394
▁ຕ່າງໆ	-13395
Perhaps	-13396
ပြည်နယ်	-13397
▁Ngunit	-13398
▁layunin	-13399
ຜົນປະໂຫຍດ	-13400
▁အရည်အသွေး	-13401
ប្រវត្តិសាស្ត្រ	-13402
CS	-13403
信号	-13404
ຟຣີ	-13405
wise	-13406
▁egg	-13407
▁သတိ	-13408
▁多くの	-13409
gress	-13410
▁lots	-13411
▁yell	-13412
▁Ingles	-13413
しているのです	-13414
ຜູ້ຜະລິດ	-13415
វិជ្ជមាន	-13416
▁Academy	-13417
ပေါင်းစပ်	-13418
役割	-13419
サイト	-13420
▁ກິນ	-13421
▁ເຫລ	-13422
▁ໄຫມ	-13423
これから	-13424
だと思う	-13425
attoo	-13426
រូបភាព	-13427
▁large	-13428
▁ປະກາດ	-13429
ດ້ວຍການ	-13430
▁training	-13431
Gu	-13432
mg	-13433
ພີ	-13434
ときに	-13435
aban	-13436
rect	-13437
▁180	-13438
▁Non	-13439
elect	-13440
▁path	-13441
ំទូលាយ	-13442
▁feels	-13443
▁Thomas	-13444
▁ဒီဇိုင်း	-13445
▁nagtrabaho	-13446
2%	-13447
gu	-13448
hib	-13449
ຊົງ	-13450
hens	-13451
imum	-13452
itude	-13453
▁Nick	-13454
▁ဂိမ်း	-13455
▁common	-13456
ທີ່ພວກເຮົາ	-13457
ລໍ	-13458
ຍລະ	-13459
ລິກ	-13460
▁ຜິດ	-13461
ining	-13462
ential	-13463
ໂຮງແຮມ	-13464
អ៊ីនធឺ	-13465
▁Union	-13466
▁တောင်	-13467
ပံ့ပိုး	-13468
ទិដ្ឋាការ	-13469
▁မော်တော်	-13470
▁ពាន់លានដុល្លារ	-13471
8)	-13472
しゃ	-13473
プレ	-13474
権利	-13475
読み	-13476
erb	-13477
ງົບ	-13478
▁kop	-13479
ikular	-13480
▁Smart	-13481
▁major	-13482
▁prins	-13483
အားလုံးကို	-13484
El	-13485
Ge	-13486
落ち着	-13487
ktop	-13488
ようです	-13489
Anong	-13490
ilton	-13491
▁Nang	-13492
▁စီမံ	-13493
▁သဘော	-13494
▁Louis	-13495
▁ပိုက်	-13496
▁introd	-13497
ໃນປັດຈຸບັນ	-13498
▁ເຊິ່ງເປັນ	-13499
ຢັນ	-13500
▁eh	-13501
▁quit	-13502
នេះនឹង	-13503
បាល់បោះ	-13504
▁remind	-13505
atrabaho	-13506
▁writing	-13507
ເປົ້າຫມາຍ	-13508
မှတ်ပုံတင်	-13509
▁community	-13510
領域	-13511
စမတ်	-13512
ることも	-13513
ັງຄັບ	-13514
▁ໄລຍະ	-13515
▁Harry	-13516
▁kulay	-13517
▁liter	-13518
▁relax	-13519
▁nating	-13520
alarawan	-13521
▁cryptocurrency	-13522
2"	-13523
vin	-13524
တိတ်	-13525
န်းဒ	-13526
ulous	-13527
▁ruin	-13528
ຂອງນາງ	-13529
▁ພະຈິກ	-13530
▁masama	-13531
ຄົ້ນຄວ້າ	-13532
▁pangkalahat	-13533
kl	-13534
▁ミ	-13535
製品	-13536
ຊີ້	-13537
▁考え	-13538
子供の	-13539
ສັ້ນ	-13540
រហ័ស	-13541
Great	-13542
▁opin	-13543
ຂອງໂລກ	-13544
ိုလှောင်	-13545
ການນໍາໃຊ້	-13546
共通	-13547
分析	-13548
まって	-13549
uran	-13550
▁Mayo	-13551
▁relasyon	-13552
▁Australia	-13553
လမ်းကြောင်း	-13554
ထုတ်လုပ်သူများ	-13555
',	-13556
が出	-13557
ハー	-13558
ြပ်	-13559
▁(2	-13560
ក្មេង	-13561
ortunity	-13562
▁အောင်မြင်	-13563
sis	-13564
ubukan	-13565
ສະເລ່ຍ	-13566
▁daddy	-13567
▁dagat	-13568
▁အရောင်	-13569
អ្នកទេសចរ	-13570
▁ကျွန်ုပ်တို့	-13571
Im	-13572
ef	-13573
報告	-13574
多様	-13575
Pal	-13576
រៀន	-13577
にした	-13578
私には	-13579
▁Gen	-13580
ធនាគារ	-13581
▁partikular	-13582
ដ៍	-13583
TML	-13584
ສົບ	-13585
រាង	-13586
パート	-13587
▁ເປີ	-13588
heart	-13589
ແນ່ໃຈ	-13590
နမူနာ	-13591
▁Best	-13592
▁mahal	-13593
ルは	-13594
▁ເຈ	-13595
を起こ	-13596
odes	-13597
▁Sat	-13598
▁cheat	-13599
နှိုင်း	-13600
▁maganda	-13601
အေ	-13602
ូស	-13603
かと	-13604
沢山	-13605
ເທີ	-13606
နွေ	-13607
▁Li	-13608
信じて	-13609
▁Jon	-13610
▁Mak	-13611
▁ຕາຍ	-13612
ໃນລະຫວ່າງ	-13613
យុទ្ធសាស្រ្ត	-13614
発明	-13615
ひとつ	-13616
ကုဒ်	-13617
istry	-13618
ပုဂ္ဂိုလ်	-13619
▁continue	-13620
ຄວາມແຕກຕ່າງ	-13621
意見	-13622
Say	-13623
vis	-13624
▁ဖိ	-13625
▁いつ	-13626
ុមារ	-13627
▁den	-13628
してない	-13629
▁သဘာဝ	-13630
▁Krist	-13631
▁လုံးဝ	-13632
▁အကြား	-13633
▁ခေါင်း	-13634
▁အကျိုး	-13635
ນັ້ນແມ່ນ	-13636
▁suporta	-13637
▁kontribusyon	-13638
働き	-13639
量の	-13640
າມາ	-13641
2018	-13642
Mula	-13643
ខណ្ឌ	-13644
ូរ៉េ	-13645
▁ບິນ	-13646
ensive	-13647
ထက်ပို	-13648
▁Daddy	-13649
ຕະໂນມັດ	-13650
▁breakfast	-13651
体は	-13652
気に	-13653
2">	-13654
Post	-13655
agad	-13656
ຝ່າຍ	-13657
ອີງໃສ່	-13658
လွှမ်း	-13659
▁plano	-13660
▁သင်တန်း	-13661
ကောင်းသော	-13662
វែង	-13663
▁ກາງ	-13664
あなたを	-13665
សហភាព	-13666
▁Times	-13667
▁gives	-13668
▁nature	-13669
តែមួយគត់	-13670
▁goddamn	-13671
ປະຕິບັດຕາມ	-13672
▁nakalipas	-13673
ទ្រព្យសម្បត្តិ	-13674
HS	-13675
▁8,	-13676
▁Ay	-13677
▁MO	-13678
を理解	-13679
ロール	-13680
私達が	-13681
Sino	-13682
ayun	-13683
ង់ទី	-13684
▁GDP	-13685
esome	-13686
▁Mult	-13687
ອະນາຄົດ	-13688
▁musika	-13689
ຂອງບໍລິສັດ	-13690
の間	-13691
Ind	-13692
val	-13693
បួន	-13694
ລະບຸ	-13695
▁Ken	-13696
ached	-13697
▁sino	-13698
▁မင်း	-13699
ibbean	-13700
▁Maria	-13701
▁ຜູ້ທີ່	-13702
▁comfort	-13703
ທີ່ສຸດໃນໂລກ	-13704
苦し	-13705
alig	-13706
စုပ်	-13707
ယ်ယူ	-13708
▁His	-13709
▁Ven	-13710
▁tap	-13711
▁大きな	-13712
ມາຮອດ	-13713
▁orig	-13714
ຍອມຮັບ	-13715
akailan	-13716
▁Resort	-13717
▁Sapagka	-13718
ຢີ	-13719
▁いや	-13720
="0.	-13721
ຄະເນ	-13722
▁arch	-13723
▁២០១៩	-13724
ລາຍຊື່	-13725
▁tools	-13726
▁Player	-13727
អ៊ុយក្រែន	-13728
ການເຮັດວຽກ	-13729
IG	-13730
RP	-13731
▁レ	-13732
フレ	-13733
ມິດ	-13734
▁doc	-13735
▁ສັງ	-13736
▁非常に	-13737
ក្កដា	-13738
▁none	-13739
စီဂျင်	-13740
▁hayop	-13741
ເກີດຂື້ນ	-13742
▁bathroom	-13743
▁certainly	-13744
▁ដែលត្រូវបាន	-13745
▁အစိတ်အပိုင်း	-13746
証明	-13747
វ័យ	-13748
မြား	-13749
ពាហ៍	-13750
▁Tat	-13751
▁ဤသည်	-13752
についての	-13753
▁Allah	-13754
ຊ່ວຍໃຫ້	-13755
ကော်ပို	-13756
ဦးဆောင်	-13757
▁signal	-13758
▁ပုံမှန်	-13759
▁ကျုပ်တို့	-13760
▁ក្នុងរយៈពេល	-13761
あと	-13762
何の	-13763
ហុង	-13764
▁တံ	-13765
otse	-13766
နာဂတ်	-13767
▁Scott	-13768
limited	-13769
▁Aleman	-13770
បោះឆ្នោត	-13771
▁created	-13772
▁→	-13773
api	-13774
imp	-13775
ាហរ	-13776
▁Rock	-13777
ທົບທວນ	-13778
▁guest	-13779
ဖက်ရှင်နယ်	-13780
▁ON	-13781
acle	-13782
▁တင်	-13783
otten	-13784
គួរតែ	-13785
នូវការ	-13786
▁Steve	-13787
mission	-13788
▁Disney	-13789
▁allowed	-13790
ရော်ဖက်ရှင်နယ်	-13791
MT	-13792
後ろ	-13793
警官	-13794
log	-13795
▁wat	-13796
▁ສະພາ	-13797
▁laugh	-13798
មន្រ្តី	-13799
ទូលំទូលាយ	-13800
န်းဒရွိုက်	-13801
ပတ်ဝန်းကျင်	-13802
ST	-13803
ီဝ	-13804
ポー	-13805
ຊິດ	-13806
ເຊີ	-13807
くれて	-13808
▁ນອກ	-13809
itted	-13810
ຍັງມີ	-13811
▁rent	-13812
▁ရိုး	-13813
▁Chris	-13814
▁shoes	-13815
▁students	-13816
ឈរ	-13817
自動	-13818
မူလ	-13819
ធន់	-13820
▁MT	-13821
▁Si	-13822
nder	-13823
▁Cry	-13824
▁ing	-13825
arter	-13826
ស្ត្រ	-13827
ឡុងដ៍	-13828
▁inih	-13829
សាកល្បង	-13830
▁employ	-13831
▁ທີ່ໄດ້	-13832
▁ကျောက်	-13833
▁ប្រាក់	-13834
တော်များ	-13835
Everybody	-13836
▁miyembro	-13837
ကျေးဇူးတင်	-13838
anz	-13839
ウイル	-13840
ອາເມ	-13841
ໃຫ້ອ	-13842
Today	-13843
eller	-13844
itang	-13845
▁format	-13846
▁နားလည်	-13847
ワク	-13848
書き	-13849
rid	-13850
ຫມໍ	-13851
ង្ហ	-13852
ចលន	-13853
rary	-13854
▁ແຫນ	-13855
အဆင့်	-13856
少なくとも	-13857
ាធិបតី	-13858
ដោះស្រាយ	-13859
▁William	-13860
▁mensahe	-13861
▁ລ້ານຄົນ	-13862
▁available	-13863
ほう	-13864
捜査	-13865
撮影	-13866
見える	-13867
▁mode	-13868
▁တရား	-13869
メッセージ	-13870
iction	-13871
သိပ္ပံ	-13872
▁aklat	-13873
▁Because	-13874
អាល្លឺម៉ង់	-13875
សូ	-13876
当て	-13877
ទ័រ	-13878
▁ສັບ	-13879
ったんだ	-13880
abuti	-13881
ridge	-13882
▁Asia	-13883
▁niyo	-13884
ဖတ်ရန်	-13885
英語	-13886
លឿន	-13887
enda	-13888
ဓါန်	-13889
▁dako	-13890
▁guns	-13891
▁compl	-13892
▁kalak	-13893
▁reading	-13894
▁ベ	-13895
もら	-13896
テロ	-13897
被害	-13898
リズム	-13899
esyal	-13900
ugust	-13901
បណ្តុះ	-13902
▁Whats	-13903
▁becom	-13904
▁bukas	-13905
▁animal	-13906
တွေအတွက်	-13907
▁average	-13908
▁ထုတ်လုပ်သူများ	-13909
7)	-13910
▁GO	-13911
▁ST	-13912
ここは	-13913
っかり	-13914
ໂລຫະ	-13915
▁Kim	-13916
▁Las	-13917
▁ມັກ	-13918
▁ခေါ်	-13919
▁bibig	-13920
▁prove	-13921
ປະສົບຜົນ	-13922
▁Society	-13923
ដោយឥតគិតថ្លៃ	-13924
呼び	-13925
Time	-13926
iram	-13927
olar	-13928
▁អនុ	-13929
いますが	-13930
ports	-13931
ត្រួត	-13932
មិនមែន	-13933
▁micro	-13934
▁tough	-13935
▁mamaya	-13936
▁သတ်မှတ်	-13937
▁following	-13938
ナイ	-13939
判断	-13940
ແດ່	-13941
ခက်	-13942
မော	-13943
▁CH	-13944
決して	-13945
ຫ່າງ	-13946
បាន។	-13947
▁ອິນ	-13948
နိမ့်	-13949
▁tour	-13950
▁names	-13951
ຮຽກຮ້ອງ	-13952
တွေ့ရှိ	-13953
▁temper	-13954
▁ອຸປະກອນ	-13955
▁neighbor	-13956
▁realized	-13957
▁ອາເມລິກາ	-13958
រំពឹងថានឹង	-13959
▁·	-13960
バル	-13961
▁5:	-13962
お話し	-13963
できて	-13964
ចាក់	-13965
▁Pac	-13966
▁mid	-13967
▁Tony	-13968
▁mukha	-13969
ຄົນອື່ນ	-13970
ဂျစ်တယ်	-13971
▁Daniel	-13972
▁escape	-13973
▁Amerika	-13974
plikasyon	-13975
សហប្រជាជាតិ	-13976
▁シ	-13977
▁ホ	-13978
込む	-13979
行って	-13980
utas	-13981
utom	-13982
ាមិន	-13983
▁Conf	-13984
ការពិត	-13985
▁Smith	-13986
▁pregn	-13987
▁upset	-13988
သုံးစွဲ	-13989
▁ຫວຽດນາມ	-13990
ခ်	-13991
以前	-13992
作り	-13993
我が	-13994
武器	-13995
ិយស	-13996
anga	-13997
ပမာဏ	-13998
▁HIV	-13999
atory	-14000
ရိုင်	-14001
▁earl	-14002
んじゃない	-14003
▁eating	-14004
制御	-14005
学ぶ	-14006
立つ	-14007
bing	-14008
▁ခြေ	-14009
おそらく	-14010
anging	-14011
icious	-14012
Kanyang	-14013
▁promised	-14014
改善	-14015
計算	-14016
-18	-14017
ads	-14018
▁cm	-14019
ຫລວງ	-14020
ຮ້ອຍ	-14021
កសាង	-14022
▁196	-14023
▁ເຫມີ	-14024
と呼ばれる	-14025
ທາງດ້ານ	-14026
ិត្តិយស	-14027
အသေးစိတ်	-14028
▁proyekto	-14029
ដំ	-14030
▁៦	-14031
▁IM	-14032
isik	-14033
ounc	-14034
အမြဲ	-14035
ຫຼາຍໆ	-14036
▁Data	-14037
ຍລະມັນ	-14038
ລົງທຶນ	-14039
တီထွင်	-14040
abagong	-14041
ម្ព័ន្ធ	-14042
▁ហើយបាន	-14043
▁ယုံကြည်	-14044
▁ទទួលបាន	-14045
▁Bartlett	-14046
▁appreciate	-14047
▁ああ	-14048
が起こ	-14049
にいた	-14050
arto	-14051
វ៉ាក់	-14052
ានុពល	-14053
▁Prot	-14054
▁item	-14055
らなかった	-14056
စာရွက်	-14057
▁Linux	-14058
▁turns	-14059
akaroon	-14060
ពិធីបុណ្យ	-14061
1"	-14062
基づ	-14063
炭素	-14064
進歩	-14065
kan	-14066
ပါဝါ	-14067
えている	-14068
リーダー	-14069
▁ថ្មី	-14070
ໃຫ້ແກ່	-14071
▁ເສັ້ນ	-14072
ပေးဖို့	-14073
လတ်စတစ်	-14074
ប៉ុណ្ណោះទេ	-14075
គំនិតផ្តួចផ្តើម	-14076
事故	-14077
ក្ប	-14078
លិច	-14079
itiz	-14080
ធានី	-14081
▁Rad	-14082
まったく	-14083
ancial	-14084
iyahan	-14085
▁အရမ်း	-14086
ເຂົ້າມາ	-14087
▁taught	-14088
ຂອງເຈົ້າ	-14089
▁collect	-14090
▁absolutely	-14091
QL	-14092
ບາ	-14093
セス	-14094
ភណ្ឌ	-14095
ុម្ភ	-14096
▁FBI	-14097
▁ດິນ	-14098
About	-14099
ဒါနဲ့	-14100
ဖြန့်	-14101
▁Bibl	-14102
▁ໂທລະ	-14103
▁ဥပမာ	-14104
ຕ້ອງໄດ້	-14105
မြင့်မား	-14106
ក្នុងនាម	-14107
វ៉ាក់សាំង	-14108
▁pressure	-14109
Mah	-14110
Mas	-14111
▁သူက	-14112
ordan	-14113
▁Link	-14114
▁ဒီမှာ	-14115
ຂອງປະເທດ	-14116
စွမ်းအင်	-14117
▁Charles	-14118
▁weekend	-14119
必ず	-14120
inda	-14121
▁Rel	-14122
သင်ယူ	-14123
ស្តង់	-14124
▁claim	-14125
▁fucked	-14126
កន្លែងដែល	-14127
▁nagsasabi	-14128
▁ငါတို့သည်	-14129
▁opportunity	-14130
労働	-14131
ဆွေ	-14132
▁လိ	-14133
လို့ရ	-14134
ໂປແກຼມ	-14135
ဝင်ငွေ	-14136
▁guard	-14137
▁ပြဿနာ	-14138
န့်ကျင်	-14139
▁England	-14140
▁village	-14141
មា	-14142
ອາຍ	-14143
▁kr	-14144
▁Box	-14145
ຊຸມຊົນ	-14146
ທີ່ນີ້	-14147
នៅថ្ងៃ	-14148
jection	-14149
▁kitchen	-14150
ສະແດງໃຫ້ເຫັນ	-14151
場で	-14152
行為	-14153
ដារ	-14154
たぶん	-14155
បៃតង	-14156
ឧសភា	-14157
▁ແຂວງ	-14158
ຕໍ່ສູ້	-14159
▁Francisco	-14160
危機	-14161
ANG	-14162
olm	-14163
លប់	-14164
တွယ်	-14165
အင်း	-14166
▁Add	-14167
したんだ	-14168
▁Sund	-14169
ipping	-14170
ນັກຮຽນ	-14171
▁beses	-14172
▁គ្រឿង	-14173
ອະທິບາຍ	-14174
▁weapon	-14175
တယ်ဆိုတာ	-14176
အမျိုးသား	-14177
8%	-14178
Fl	-14179
бһ	-14180
oms	-14181
ဆော့	-14182
▁Log	-14183
▁Nor	-14184
▁tow	-14185
atures	-14186
usting	-14187
▁manan	-14188
▁itself	-14189
▁တစ်ဦးက	-14190
▁ខែតុលា	-14191
ຕໍ່ໄປນີ້	-14192
▁detalye	-14193
▁ດັ່ງກ່າວ	-14194
សម្រេចចិត្ត	-14195
Sm	-14196
ិ៍	-14197
ື່ອກ	-14198
ឌីជី	-14199
មួយ។	-14200
▁Ped	-14201
ផ្ទុក	-14202
▁League	-14203
▁lumikha	-14204
htt	-14205
rog	-14206
រំភ	-14207
お願い	-14208
မဂ္ဂ	-14209
េតិក	-14210
▁Boy	-14211
▁Cup	-14212
▁tan	-14213
apons	-14214
ລົດໄຟ	-14215
ខ្ចប់	-14216
▁puno	-14217
▁ກິໂລ	-14218
ោទនភាព	-14219
ດາວໂຫລດ	-14220
▁dakong	-14221
▁asshole	-14222
▁ຖ້າທ່ານ	-14223
▁ສະມາຊິກ	-14224
一般	-14225
အသီး	-14226
ຄະແນນ	-14227
ကူအညီ	-14228
▁guro	-14229
▁pred	-14230
▁equation	-14231
MB	-14232
ຟູ	-14233
こん	-14234
有名	-14235
来い	-14236
今日は	-14237
asaan	-14238
បំបែក	-14239
▁neck	-14240
▁အလွန်	-14241
ຕັ້ງຄ່າ	-14242
▁mahirap	-14243
Mic	-14244
を引き	-14245
んでる	-14246
サービ	-14247
omat	-14248
ចំណាត់	-14249
កាន់តែច្រើន	-14250
HP	-14251
モー	-14252
突然	-14253
ASA	-14254
shit	-14255
▁Fre	-14256
ະລຸນາ	-14257
▁danc	-14258
▁ideas	-14259
▁price	-14260
ထောင်စု	-14261
အန္တရာယ်	-14262
plo	-14263
▁SK	-14264
▁ຫະ	-14265
なのは	-14266
▁APK	-14267
▁sik	-14268
▁spl	-14269
▁comb	-14270
▁fort	-14271
▁size	-14272
aganap	-14273
bilang	-14274
eksyon	-14275
ရှောင်	-14276
▁innoc	-14277
▁libre	-14278
▁stuck	-14279
▁ກຸມພາ	-14280
ເຫມາະສົມ	-14281
လမ်းညွှန်	-14282
ទាក់ទងនឹង	-14283
3"	-14284
Last	-14285
▁prib	-14286
ものでした	-14287
▁conversation	-14288
▁សមាគមទេសចរណ៍	-14289
ខេ	-14290
▁៧	-14291
ドア	-14292
သလဲ	-14293
▁Kr	-14294
າບັນ	-14295
ຕະລາງ	-14296
▁More	-14297
▁lalo	-14298
យើងមាន	-14299
▁holding	-14300
▁nilikha	-14301
▁putting	-14302
を買	-14303
気候	-14304
eek	-14305
▁(0	-14306
▁34	-14307
asang	-14308
▁radio	-14309
▁pumasok	-14310
▁kasalukuyang	-14311
土地	-14312
ຈອນ	-14313
ແຫນ	-14314
ッシュ	-14315
ဖမ်း	-14316
គំរូ	-14317
abing	-14318
attle	-14319
▁Cour	-14320
▁bear	-14321
atuloy	-14322
ကတည်းက	-14323
ြိတိန်	-14324
▁smoke	-14325
▁သတ္တု	-14326
▁ဖြစ်လာ	-14327
ອຸນຫະພູມ	-14328
ການອອກແບບ	-14329
▁Association	-14330
ລິນ	-14331
▁9.	-14332
Make	-14333
▁တော်	-14334
ခုနှစ်	-14335
▁separ	-14336
▁ပေါင်း	-14337
បោះពុម្ព	-14338
ព្យាករណ៍	-14339
▁usually	-14340
▁kaalaman	-14341
▁komunidad	-14342
▁ထုတ်လုပ်သူ	-14343
心臓	-14344
死に	-14345
tor	-14346
ແຍກ	-14347
ထန်	-14348
▁km	-14349
အရပ်	-14350
▁အသိ	-14351
World	-14352
ឌីជីថល	-14353
Tungkol	-14354
ထိန်းသိမ်း	-14355
5)	-14356
完璧	-14357
既に	-14358
enge	-14359
ivid	-14360
ិត្យ	-14361
▁Tab	-14362
▁だから	-14363
代わりに	-14364
omang	-14365
ကြတဲ့	-14366
▁Pack	-14367
▁blind	-14368
မယ်လို့	-14369
▁nakuha	-14370
▁Germany	-14371
▁billion	-14372
ប្រសើរឡើង	-14373
▁powerful	-14374
ကုန်ကျစရိတ်	-14375
ベー	-14376
利益	-14377
強く	-14378
産業	-14379
-30	-14380
ម៉ាឡ	-14381
▁Kap	-14382
▁fit	-14383
▁我々は	-14384
ມານີ້	-14385
သိုလ်	-14386
▁piss	-14387
▁Victor	-14388
▁except	-14389
▁အမျိုးသမီး	-14390
ຂອງເຂົາເຈົ້າ	-14391
内の	-14392
多分	-14393
ປຽບ	-14394
▁Mas	-14395
っていて	-14396
はずです	-14397
ပျိုး	-14398
しまいます	-14399
▁stress	-14400
មួយឆ្នាំ	-14401
ຊິ	-14402
ザー	-14403
飲み	-14404
icer	-14405
ាលពី	-14406
▁owe	-14407
▁passed	-14408
လေ့ကျင့်	-14409
ហេតុអ្វី	-14410
န်ဆောင်မှု	-14411
ខាត	-14412
ណីត	-14413
▁မေ	-14414
までの	-14415
自分で	-14416
▁Sen	-14417
annel	-14418
araang	-14419
အကြံပေး	-14420
ມະຫາວິທະຍາໄລ	-14421
ត្រួតពិនិត្យ	-14422
▁{	-14423
車の	-14424
esh	-14425
នាវ	-14426
かれた	-14427
evin	-14428
▁Tem	-14429
▁source	-14430
ចូលទៅក្នុង	-14431
▁everywhere	-14432
LA	-14433
ຄູ	-14434
日本	-14435
Tin	-14436
ຄັດ	-14437
ຄຣິດ	-14438
▁cow	-14439
▁oil	-14440
abase	-14441
ຫນຸ່ມ	-14442
សញ្ញា	-14443
▁bill	-14444
▁pagka	-14445
▁Moscow	-14446
ເກີດຂຶ້ນ	-14447
េតិកភណ្ឌ	-14448
▁အဲဒီလို	-14449
明ら	-14450
貧困	-14451
tat	-14452
▁cup	-14453
▁fem	-14454
▁ຄູ່	-14455
▁upon	-14456
▁Glass	-14457
▁bigger	-14458
▁picked	-14459
▁unless	-14460
▁kasangk	-14461
ចំណាត់ថ្នាក់	-14462
ຂອງຂ້າພະເຈົ້າ	-14463
TF	-14464
▁リ	-14465
▁ແຕກ	-14466
stant	-14467
▁legs	-14468
▁ລາຄາ	-14469
unting	-14470
ເສຍຄ່າ	-14471
ကြသည်။	-14472
တိုဘာလ	-14473
▁incre	-14474
▁tumut	-14475
နှိပ်ပါ	-14476
▁numbers	-14477
ရိုးရှင်း	-14478
▁នៅថ្ងៃទី	-14479
អ៊ីស្រាអែល	-14480
申し	-14481
亡くな	-14482
思い出	-14483
...?	-14484
="5.	-14485
ples	-14486
ລ້ານ	-14487
▁ນາຍ	-14488
▁snow	-14489
▁worst	-14490
▁ល្ងាច	-14491
▁detail	-14492
▁pagtuturo	-14493
生物学	-14494
atas	-14495
Looks	-14496
မိန်း	-14497
▁Back	-14498
▁sake	-14499
▁banal	-14500
▁patak	-14501
▁Ningbo	-14502
▁button	-14503
က္ကသိုလ်	-14504
▁further	-14505
▁ພຶດສະພາ	-14506
ចូលរួមក្នុង	-14507
-9	-14508
▁Ast	-14509
▁Ukr	-14510
▁puw	-14511
ったのは	-14512
useum	-14513
ເຄິ່ງ	-14514
ໂຍບາຍ	-14515
▁២០២០	-14516
စာတမ်း	-14517
ធម្មតា	-14518
ຫຼ້າສຸດ	-14519
▁narinig	-14520
ຢ່າງຫນ້ອຍ	-14521
▁drinking	-14522
မျှော်လင့်	-14523
ថ្លែងការណ៍	-14524
▁အလုပ်လုပ်	-14525
会議	-14526
មែល	-14527
わかります	-14528
iately	-14529
အမြင့်	-14530
ສິ່ງນີ້	-14531
▁bundok	-14532
Maraming	-14533
▁enerhiya	-14534
▁າ	-14535
-16	-14536
Ben	-14537
▁DO	-14538
▁LT	-14539
▁ul	-14540
▁FBS	-14541
▁Juan	-14542
▁harm	-14543
▁ທຸກໆ	-14544
ဉ်ကျေး	-14545
▁doubt	-14546
ຫລັງຈາກ	-14547
ことができます	-14548
変動	-14549
oor	-14550
ທ່າ	-14551
အလွ	-14552
ិខិត	-14553
ແຫຼ່ງ	-14554
▁firm	-14555
▁LGBTQ	-14556
▁sigur	-14557
▁gastos	-14558
▁masaya	-14559
▁pagsas	-14560
▁kasamaan	-14561
ម្ចាស់ផ្ទះ	-14562
កក	-14563
これで	-14564
続ける	-14565
riya	-14566
ubre	-14567
ລຸ່ມ	-14568
でもない	-14569
asons	-14570
ុម្ភៈ	-14571
▁weak	-14572
ervous	-14573
▁focus	-14574
ຄວາມຮັກ	-14575
▁ကမ္ဘာ့	-14576
▁karanasan	-14577
လု	-14578
初の	-14579
合い	-14580
支配	-14581
ຂີ້	-14582
ມາກ	-14583
olly	-14584
ively	-14585
ashion	-14586
▁ရောက်	-14587
くは	-14588
動か	-14589
ဂို	-14590
▁何を	-14591
aced	-14592
ilin	-14593
▁30%	-14594
▁Way	-14595
odies	-14596
▁With	-14597
▁susp	-14598
▁ဇာတ်	-14599
ເຕີບໂຕ	-14600
▁faith	-14601
を持っている	-14602
▁Mother	-14603
古い	-14604
ဒစ်	-14605
ရွာ	-14606
လိက	-14607
ខណៈ	-14608
ម៉ា	-14609
វេច	-14610
選択肢	-14611
aped	-14612
▁Kal	-14613
▁ແດງ	-14614
ຕໍ່ມາ	-14615
▁Cong	-14616
▁ຂັ້ນ	-14617
យោងតាម	-14618
បាត់បង់	-14619
▁church	-14620
▁simply	-14621
angyaring	-14622
▁emergency	-14623
ប្រាក់ចំណេញ	-14624
▁ស្រ	-14625
ខាងកើត	-14626
ຄໍາສັ່ງ	-14627
ພົບເຫັນ	-14628
ငွေကြေး	-14629
▁compet	-14630
▁showed	-14631
▁Airport	-14632
▁ກົດຫມາຍ	-14633
監視	-14634
awn	-14635
សាទ	-14636
してい	-14637
ジャー	-14638
ສູນເສຍ	-14639
នេះមាន	-14640
▁10,000	-14641
かが	-14642
ker	-14643
တကာ	-14644
tery	-14645
▁hits	-14646
▁pool	-14647
▁lubos	-14648
▁ເພິ່ນ	-14649
ထောက်ခံ	-14650
▁tampok	-14651
▁Develop	-14652
▁forgive	-14653
ပြိုင်ပွဲ	-14654
នៃការធ្វើដំណើរ	-14655
ិល	-14656
しに	-14657
ルを	-14658
mga	-14659
uzz	-14660
▁どの	-14661
ပါစေ	-14662
▁sen	-14663
ຊາກອນ	-14664
ເດັ່ນ	-14665
ម៉ាល់	-14666
ຕົວເອງ	-14667
▁accom	-14668
ဝန်ကြီး	-14669
កិត្តិយស	-14670
ប្រាក់រង្វាន់	-14671
edy	-14672
သန်	-14673
្ញើ	-14674
▁理解	-14675
と共に	-14676
リーン	-14677
生まれ	-14678
alls	-14679
▁LLC	-14680
▁ຂອບ	-14681
▁Love	-14682
▁capt	-14683
▁tawag	-14684
uwalhat	-14685
▁niyaon	-14686
▁Espiritu	-14687
▁ລັງຊອກຫາ	-14688
▁စာမျက်နှာ	-14689
燃料	-14690
800	-14691
arr	-14692
bel	-14693
Watch	-14694
ennis	-14695
▁cake	-14696
▁ພາສາ	-14697
uclear	-14698
してきました	-14699
တစ်ခုတည်း	-14700
វាយប្រហារ	-14701
▁intellig	-14702
込ま	-14703
Mrs	-14704
កូដ	-14705
いいか	-14706
adem	-14707
udio	-14708
ឧទ្យ	-14709
ここにいる	-14710
င်္ဂလာ	-14711
ឧទ្យាន	-14712
▁Donald	-14713
ស្ត្រាលី	-14714
▁impossible	-14715
မု	-14716
▁話	-14717
気を	-14718
YOU	-14719
ທະນ	-14720
មហា	-14721
មហាស	-14722
ាហ្គ	-14723
▁bene	-14724
▁dugo	-14725
uality	-14726
ທີ່ໃຊ້	-14727
▁mater	-14728
▁素晴らしい	-14729
ຊົ່ວໂມງ	-14730
ឯកឧត្តម	-14731
▁dreams	-14732
▁finger	-14733
▁လေယာဉ်	-14734
▁Resorts	-14735
▁interview	-14736
▁ကျွန်ုပ်တို့၏	-14737
▁全	-14738
▁生	-14739
位置	-14740
ablo	-14741
▁700	-14742
▁အဘိ	-14743
ການກະ	-14744
aksyon	-14745
と言いました	-14746
អ្នកលេង	-14747
▁mathem	-14748
វេចខ្ចប់	-14749
▁appoint	-14750
▁ທີ່ທ່ານ	-14751
▁Caribbean	-14752
ທີ່ກ່ຽວຂ້ອງ	-14753
9:	-14754
ທາ	-14755
នេ	-14756
ួម	-14757
លុប	-14758
ものに	-14759
ສະດຸ	-14760
លាក់	-14761
たくさんの	-14762
▁buhok	-14763
មោទនភាព	-14764
▁helped	-14765
▁seemed	-14766
ကျယ်ပြန့်	-14767
▁football	-14768
ភី	-14769
観察	-14770
最初に	-14771
▁Mot	-14772
▁wild	-14773
▁あなたが	-14774
iminal	-14775
ကုသမှု	-14776
အားပေး	-14777
មួយដែល	-14778
ូនេស៊ី	-14779
▁photo	-14780
ປົກປ້ອງ	-14781
ုပ်ထွေး	-14782
ໂສ	-14783
ໄຕ	-14784
លេច	-14785
するため	-14786
ちょうど	-14787
ပွင့်	-14788
▁evil	-14789
▁race	-14790
ording	-14791
▁depos	-14792
▁twice	-14793
▁action	-14794
ວາງສະແດງ	-14795
ဘက်ဆိုင်ရာ	-14796
大事	-14797
無理	-14798
Isa	-14799
ees	-14800
ilo	-14801
pty	-14802
ទូត	-14803
もある	-14804
彼女を	-14805
ທະນະ	-14806
ວ່ານ	-14807
▁ນາດ	-14808
Jesus	-14809
Three	-14810
စင်တာ	-14811
▁Plan	-14812
▁arms	-14813
▁pala	-14814
していない	-14815
▁freed	-14816
နေထိုင်	-14817
▁eksper	-14818
គេស្គាល់	-14819
▁command	-14820
ပူးပေါင်း	-14821
▁kasaysayan	-14822
ແຖ	-14823
弁護	-14824
色の	-14825
みると	-14826
パター	-14827
alya	-14828
မှတဆင့်	-14829
▁decide	-14830
နေကြသည်။	-14831
▁upstairs	-14832
少女	-14833
本当の	-14834
ປື້ມ	-14835
▁Gib	-14836
▁Van	-14837
ることに	-14838
တံခါး	-14839
အရင်း	-14840
ម្រង់	-14841
▁kabu	-14842
▁အပို	-14843
အင်္ကျ	-14844
▁lokal	-14845
▁ປະເພດ	-14846
▁အဘို့	-14847
ទុកដាក់	-14848
▁ကာကွယ်	-14849
ပို့ဆောင်	-14850
စိတ်ဝင်စား	-14851
esa	-14852
▁Ev	-14853
isis	-14854
▁ຟັງ	-14855
があって	-14856
ພຽງພໍ	-14857
▁Cons	-14858
illing	-14859
ត្រលប់	-14860
▁Chuck	-14861
▁Email	-14862
နေရာမှာ	-14863
▁愛	-14864
ဘဏ်	-14865
ណ្ដ	-14866
ここから	-14867
だという	-14868
မုန်း	-14869
Intern	-14870
မှုရေး	-14871
ីស្ថាន	-14872
▁2020.	-14873
ຂ້ອຍໄດ້	-14874
မှန်ကန်	-14875
▁ຂະຫນາດ	-14876
▁makapag	-14877
▁staying	-14878
ပေါင်းများစွာ	-14879
សហប្រតិបត្តិការ	-14880
Cr	-14881
家庭	-14882
用の	-14883
革命	-14884
got	-14885
こうした	-14886
赤ちゃん	-14887
▁chair	-14888
▁ဒီဂရီ	-14889
▁ໂຮງງານ	-14890
▁nervous	-14891
▁pagpapat	-14892
ကျန်းမာရေး	-14893
လုံခြုံရေး	-14894
▁海	-14895
再び	-14896
が好き	-14897
▁ရှေ့	-14898
ことがある	-14899
▁Media	-14900
ortahan	-14901
ဖြစ်သည်	-14902
直面	-14903
បអរ	-14904
cell	-14905
uary	-14906
ရလဒ်	-14907
ຝຣັ່ງ	-14908
ຕົ້ນຕໍ	-14909
▁sanhi	-14910
ສິ້ນສຸດ	-14911
ရှိပြီး	-14912
្ដ	-14913
地図	-14914
Sum	-14915
ဝါဒ	-14916
ひどい	-14917
るべき	-14918
..."	-14919
ချဲ့	-14920
けません	-14921
ប្រណីត	-14922
ပြင်ဆင်	-14923
▁Service	-14924
អ៊ីនធឺណិត	-14925
▁Christian	-14926
▁外	-14927
痛み	-14928
700	-14929
ຫໍ້	-14930
စေ့	-14931
▁ຄະ	-14932
もなく	-14933
Back	-14934
မြတ်	-14935
を通して	-14936
ivity	-14937
ຄໍາຖາມ	-14938
អត្ថបទ	-14939
▁began	-14940
▁closed	-14941
▁hiding	-14942
ibilidad	-14943
▁weapons	-14944
▁ທີ່ເປັນ	-14945
Sl	-14946
力が	-14947
平和	-14948
教師	-14949
Ste	-14950
asp	-14951
▁SE	-14952
ນັ່ງ	-14953
အထက်	-14954
▁မကြာ	-14955
▁Queen	-14956
ရှင်းရေး	-14957
▁Johnson	-14958
ノー	-14959
້ວນ	-14960
Want	-14961
▁ເຕີ	-14962
ening	-14963
hatid	-14964
ທະສາດ	-14965
▁mama	-14966
កេនយ៉ា	-14967
▁palag	-14968
▁လူတွေ	-14969
▁gulang	-14970
▁orders	-14971
▁ငါတို့	-14972
▁opisyal	-14973
5:	-14974
Pre	-14975
amm	-14976
行った	-14977
▁ver	-14978
▁ရေး	-14979
ល្បាញ	-14980
▁Jose	-14981
▁ayaw	-14982
▁ထိပ်	-14983
▁2017.	-14984
▁final	-14985
▁ສົນໃຈ	-14986
ປະເທດຈີນ	-14987
အလွိုင်း	-14988
なければなりません	-14989
▁ブ	-14990
向き	-14991
点で	-14992
降り	-14993
စူး	-14994
កំហ	-14995
▁ben	-14996
▁reh	-14997
▁sem	-14998
ກວ່ານ	-14999
ឆ្ងាយ	-15000
▁ရရှိ	-15001
▁Qatar	-15002
▁uncle	-15003
တစ်ခုခု	-15004
▁geomet	-15005
▁နှစ်ခု	-15006
ហិរញ្ញវត្ថុ	-15007
AE	-15008
yond	-15009
ពន្ល	-15010
▁Blu	-15011
▁Mur	-15012
ត្រៀម	-15013
ietnam	-15014
ຕໍ່ການ	-15015
အမိန့်	-15016
▁sight	-15017
ສະຫວ່າງ	-15018
▁communic	-15019
ប្រសិនបើអ្នក	-15020
Ib	-15021
働く	-15022
最大の	-15023
jack	-15024
rial	-15025
ສ່ຽງ	-15026
အာဏာ	-15027
ខ្លី	-15028
ອີເມວ	-15029
については	-15030
celona	-15031
▁bigyan	-15032
▁figured	-15033
▁milyong	-15034
បាននិយាយថា	-15035
ສະຫະລັດອາເມລິກາ	-15036
sm	-15037
AND	-15038
ຫັນ	-15039
ដាន	-15040
コード	-15041
互いに	-15042
ceed	-15043
▁typ	-15044
▁Chat	-15045
▁ຮ້າຍ	-15046
ສູນກາງ	-15047
ື່ອນໄຂ	-15048
▁Iyong	-15049
▁လူသား	-15050
としています	-15051
▁pagkuha	-15052
▁ក្នុងការ	-15053
ປະຕິບັດງານ	-15054
にあ	-15055
何で	-15056
▁(3	-15057
▁社会	-15058
text	-15059
▁ສອນ	-15060
生まれた	-15061
uktok	-15062
ກໍາມະ	-15063
ອະດີດ	-15064
រស់នៅ	-15065
▁Over	-15066
▁Paano	-15067
▁River	-15068
▁Ngayon	-15069
▁estado	-15070
▁linggo	-15071
▁madalas	-15072
မြှုပ်နှံ	-15073
ອິນເຕີເນັດ	-15074
▁sasabihin	-15075
LL	-15076
今夜	-15077
ບຸນ	-15078
と考え	-15079
▁wid	-15080
akuha	-15081
ຟຣິກາ	-15082
▁Coll	-15083
▁crack	-15084
▁waste	-15085
▁တကယ့်	-15086
▁ရောဂါ	-15087
▁ທີ່ຖືກ	-15088
▁ເນື່ອງ	-15089
pression	-15090
ທີ່ສາມາດ	-15091
បណ្តុះបណ្តាល	-15092
km	-15093
母は	-15094
amo	-15095
uta	-15096
ປ່າ	-15097
ឲ្យ	-15098
たちを	-15099
ソフト	-15100
巨大な	-15101
いたのです	-15102
▁linya	-15103
ការាបៀន	-15104
ទាំងមូល	-15105
ဆွေးနွေး	-15106
▁baguhin	-15107
▁popular	-15108
▁feelings	-15109
ចិត្តទុកដាក់	-15110
FC	-15111
ကလ	-15112
つつ	-15113
でに	-15114
ビア	-15115
ipl	-15116
ມອບ	-15117
អាង	-15118
生きて	-15119
Open	-15120
と言った	-15121
▁Lady	-15122
ရောနစ်	-15123
▁Tokyo	-15124
ထူးခြား	-15125
ដូចគ្នា	-15126
▁karera	-15127
ပုံနှိပ်	-15128
အမျိုးသမီး	-15129
ီလက်ထရောနစ်	-15130
ប្រធានាធិបតី	-15131
Oo	-15132
អត្ត	-15133
ຣິກັນ	-15134
នេះគឺ	-15135
inoong	-15136
ອິນເດຍ	-15137
နေတယ်။	-15138
လည်ပတ်	-15139
▁tight	-15140
▁ອີງຕາມ	-15141
ຫຼາຍທີ່ສຸດ	-15142
can	-15143
▁ME	-15144
っきり	-15145
lymp	-15146
osit	-15147
ကြော	-15148
ព្រំ	-15149
▁900	-15150
ក្លឹប	-15151
▁Anti	-15152
▁ປ້ອງ	-15153
▁Obama	-15154
▁မီလီမီတာ	-15155
検査	-15156
More	-15157
onto	-15158
ជាងគេ	-15159
ប្រួល	-15160
▁Fuck	-15161
▁cast	-15162
▁chem	-15163
ຫນັງສື	-15164
တစ်စီး	-15165
▁Huwag	-15166
▁alright	-15167
6:	-15168
安定	-15169
手段	-15170
pire	-15171
ង្កឹះ	-15172
▁Lock	-15173
▁ງ່າຍ	-15174
▁အမြဲ	-15175
သဖြင့်	-15176
▁student	-15177
▁speaking	-15178
▁ໄດ້ຮັບການ	-15179
▁immediately	-15180
MO	-15181
ແອ	-15182
hew	-15183
စို	-15184
ဟန်	-15185
▁សេ	-15186
အသား	-15187
ន្ទី	-15188
してもら	-15189
ໄປສູ່	-15190
▁Elect	-15191
▁motor	-15192
ពេញនិយម	-15193
▁produk	-15194
▁walked	-15195
agn	-15196
mod	-15197
ດິດ	-15198
cket	-15199
ရွေ့	-15200
▁Two	-15201
よかった	-15202
ensya	-15203
ົງເຂດ	-15204
▁Java	-15205
▁neur	-15206
ບັງຄັບ	-15207
▁Mount	-15208
▁kotse	-15209
▁trick	-15210
ထားသည်။	-15211
▁meaning	-15212
យកចិត្តទុកដាក់	-15213
**	-15214
たの	-15215
ウス	-15216
付き	-15217
ទួរ	-15218
▁hy	-15219
だけの	-15220
▁ຂາຍ	-15221
▁ထပ်	-15222
undin	-15223
ឧទាហរ	-15224
▁cars	-15225
▁hadn	-15226
▁divor	-15227
▁laman	-15228
▁ocean	-15229
▁speed	-15230
▁stole	-15231
bahayan	-15232
▁notice	-15233
▁malinaw	-15234
▁subukan	-15235
ទទួលបានការ	-15236
.'	-15237
ຈິ	-15238
ໄອ	-15239
▁そ	-15240
乗り	-15241
比較	-15242
ニック	-15243
大きさ	-15244
imin	-15245
▁SMS	-15246
▁それで	-15247
ikang	-15248
ប្រៀប	-15249
▁push	-15250
ipinas	-15251
ផ្តាច់	-15252
▁sinus	-15253
ຄາດຄະເນ	-15254
agandang	-15255
▁countries	-15256
▁environment	-15257
ນາຍົກລັດຖະມົນຕີ	-15258
だめ	-15259
を選	-15260
彼に	-15261
となり	-15262
メージ	-15263
ပုဒ်	-15264
▁Vol	-15265
▁dat	-15266
▁ຊຸມ	-15267
▁ဘက်	-15268
▁例えば	-15269
なくても	-15270
andon	-15271
ledge	-15272
ມັນມີ	-15273
▁Hill	-15274
နဝါရီလ	-15275
対象	-15276
当然	-15277
▁君の	-15278
一つの	-15279
女性の	-15280
បញ្ហ	-15281
បុរស	-15282
▁Apr	-15283
▁Job	-15284
အိုင်	-15285
▁tama	-15286
▁ပိတ်	-15287
▁Outlook	-15288
ប្រែប្រួល	-15289
89	-15290
数学	-15291
opl	-15292
wede	-15293
▁ບາດ	-15294
▁အံ့	-15295
▁Book	-15296
分かります	-15297
သေးငယ်	-15298
▁battle	-15299
▁modelo	-15300
▁humantong	-15301
မဲ	-15302
តេ	-15303
pag	-15304
ថែម	-15305
▁ຢາ	-15306
ត្រូ	-15307
▁12,	-15308
みたいな	-15309
aches	-15310
jiang	-15311
သူကို	-15312
គ្រោង	-15313
▁manl	-15314
agpuan	-15315
▁match	-15316
အရောင်း	-15317
▁reality	-15318
▁ខែវិច្ឆិកា	-15319
ເຈົ້າຫນ້າທີ່	-15320
やめ	-15321
番号	-15322
美咲	-15323
iat	-15324
▁ສປ	-15325
▁何も	-15326
ရှေး	-15327
民主主義	-15328
oston	-15329
▁Jeff	-15330
▁fant	-15331
▁ລະດັບ	-15332
ຂະບວນການ	-15333
▁helping	-15334
ありませんでした	-15335
သု	-15336
つき	-15337
法律	-15338
10.	-15339
iod	-15340
に基づ	-15341
ကြပ်	-15342
▁Ban	-15343
▁HTML	-15344
▁pint	-15345
Narito	-15346
▁hukbo	-15347
▁inaas	-15348
ບໍ່ມີການ	-15349
▁contract	-15350
▁military	-15351
ឥណ្ឌូនេស៊ី	-15352
owd	-15353
▁Ka	-15354
▁ir	-15355
Jack	-15356
alog	-15357
ilim	-15358
ufth	-15359
ເສົາ	-15360
နီယာ	-15361
oller	-15362
▁Buhay	-15363
ဖန်ဆင်း	-15364
▁ຕ້ອງການ	-15365
နိုင်တယ်။	-15366
▁ໂດຍສະເພາະ	-15367
ូដ	-15368
ေဘု	-15369
▁ရွှ	-15370
ေဘုယျ	-15371
ម្តេច	-15372
▁ຫຼຸດ	-15373
▁ຂ້າພະ	-15374
ပေးပို့	-15375
នៅទីនេះ	-15376
ufthansa	-15377
▁survive	-15378
▁represent	-15379
Yo	-15380
まと	-15381
プリ	-15382
流れ	-15383
聞き	-15384
ならば	-15385
タイム	-15386
urer	-15387
xbet	-15388
່ວັນ	-15389
មុទ្រ	-15390
▁nine	-15391
▁သွေး	-15392
▁fresh	-15393
▁hello	-15394
▁kalidad	-15395
▁request	-15396
ကောင်းမွန်	-15397
▁wondering	-15398
Co	-15399
EF	-15400
USD	-15401
ສວຍ	-15402
自身の	-15403
လုတ်	-15404
ຕອບສະ	-15405
▁alge	-15406
▁shows	-15407
▁ຫນຸ່ມ	-15408
អភិរក្ស	-15409
▁switch	-15410
Whatever	-15411
▁physics	-15412
ເພີ່ມຂື້ນ	-15413
စာနယ်ဇင်း	-15414
အောက်တွင်	-15415
ឱ្យមានការ	-15416
▁pleasure	-15417
နိုင်စွမ်း	-15418
▁រដ្ឋមន្ត្រី	-15419
DM	-15420
ns	-15421
ືມ	-15422
▁変	-15423
発生	-15424
言葉を	-15425
ຕຸລາ	-15426
အလား	-15427
▁28,	-15428
▁sle	-15429
してるの	-15430
ຕົວເລກ	-15431
▁simpl	-15432
▁society	-15433
ល្បីល្បាញ	-15434
ှနျုပျတို့	-15435
▁condition	-15436
スピ	-15437
通常	-15438
Mat	-15439
dig	-15440
の人は	-15441
エンジ	-15442
ジタル	-15443
ビジネス	-15444
eared	-15445
សន្យា	-15446
▁မှန်	-15447
update	-15448
▁Jimmy	-15449
▁dirty	-15450
ប្រធានបទ	-15451
▁mayroong	-15452
▁kategorya	-15453
だぞ	-15454
មតិ	-15455
▁Et	-15456
ールの	-15457
ールを	-15458
ပျံ့	-15459
ってるの	-15460
ktubre	-15461
ကျွန်း	-15462
ដូចគ្ន	-15463
▁ໂຄງການ	-15464
ខ្ញុំបាន	-15465
ប្រកួតប្រជែង	-15466
▁『	-15467
使い	-15468
なんか	-15469
チャン	-15470
ດື່ມ	-15471
https	-15472
ກໍຕາມ	-15473
▁hole	-15474
ເປັນທີ່	-15475
ាសម្រាប់	-15476
▁universe	-15477
▁ប្រព័ន្ធ	-15478
នាសម្ព័ន្ធ	-15479
▁បានប្រកាស	-15480
84	-15481
ໄທ	-15482
兵士	-15483
gor	-15484
olo	-15485
▁SH	-15486
電話を	-15487
ទៀត។	-15488
▁etc	-15489
あるいは	-15490
ຍິນດີ	-15491
ព្រេង	-15492
aining	-15493
ພວກເຂົ	-15494
▁behav	-15495
ສົ່ງອອກ	-15496
အပေါင်း	-15497
▁Company	-15498
▁earlier	-15499
គោលនយោបាយ	-15500
▁ဘာသာစကား	-15501
Em	-15502
ពៃ	-15503
▁脳	-15504
オレ	-15505
押し	-15506
nel	-15507
ແນກ	-15508
▁一緒	-15509
わらず	-15510
ウェブ	-15511
▁pir	-15512
alala	-15513
hanap	-15514
▁Line	-15515
▁ສະຫະ	-15516
តំណាងឱ្យ	-15517
ထိန်းချုပ်မှု	-15518
6%	-15519
げて	-15520
定義	-15521
ឃឹម	-15522
せない	-15523
▁plant	-15524
▁airport	-15525
▁papeles	-15526
ເຖິງແມ່ນວ່າ	-15527
ဖြေရှင်းချက်	-15528
ຮ່	-15529
与え	-15530
素敵	-15531
Pan	-15532
Tum	-15533
がこの	-15534
down	-15535
like	-15536
ubuo	-15537
unay	-15538
▁Jes	-15539
▁ເພງ	-15540
Black	-15541
▁panl	-15542
ສະຫຼອງ	-15543
ပတ်လည်	-15544
▁hanay	-15545
ຮ່ວມກັນ	-15546
▁artist	-15547
▁spring	-15548
▁ខែធ្នូ	-15549
ផ្នែកមួយនៃ	-15550
▁Amerikano	-15551
របស់អង្គការ	-15552
▁ကျွမ်းကျင်	-15553
場に	-15554
ERE	-15555
ိုဟ	-15556
ពុក	-15557
こいつ	-15558
始めて	-15559
ရမှာ	-15560
▁130	-15561
▁ຕື້	-15562
▁ຢືນ	-15563
▁ຫານ	-15564
▁ယခု	-15565
としての	-15566
aysay	-15567
umber	-15568
▁note	-15569
▁ເຄີຍ	-15570
教えてくれ	-15571
option	-15572
▁Simon	-15573
▁stars	-15574
▁ພາຍໃນ	-15575
ແຕ່ງງານ	-15576
ပြည့်စုံ	-15577
ດຽວກັນກັບ	-15578
လုပ်ငန်းစဉ်	-15579
နှီးမြှုပ်နှံ	-15580
စီမံခန့်ခွဲမှု	-15581
トン	-15582
施設	-15583
▁CF	-15584
maan	-15585
▁0.0	-15586
▁Sub	-15587
icans	-15588
ございます	-15589
verter	-15590
▁cells	-15591
▁print	-15592
▁smile	-15593
▁terror	-15594
になっています	-15595
ដូចម្តេច	-15596
ပရော်ဖက်ရှင်နယ်	-15597
ໄມ	-15598
ៀស	-15599
最終	-15600
犠牲	-15601
裁判	-15602
▁MB	-15603
anib	-15604
▁20,	-15605
▁adm	-15606
▁ເອກ	-15607
ພົນລະ	-15608
ကျင်း	-15609
ទីពីរ	-15610
▁Sher	-15611
န့်သတ်	-15612
▁makap	-15613
ການເດີນທາງ	-15614
လျှောက်လွှာ	-15615
ii	-15616
視覚	-15617
ION	-15618
ោរព	-15619
仕組み	-15620
▁Far	-15621
しようと	-15622
veral	-15623
ថ្នាំ	-15624
▁flat	-15625
ဆိုတဲ့	-15626
រថភ្លើង	-15627
▁excuse	-15628
ពិតប្រាកដ	-15629
ອັດຕະໂນມັດ	-15630
▁pagsusuri	-15631
▁naglalaman	-15632
ハッ	-15633
浮か	-15634
直接	-15635
▁Ke	-15636
を生み	-15637
女性が	-15638
eron	-15639
▁Jet	-15640
▁Son	-15641
▁anc	-15642
▁tells	-15643
utenant	-15644
ປະລິມານ	-15645
ផ្អែកលើ	-15646
ឧទាហរណ៍	-15647
တုံ့ပြန်	-15648
▁ninyong	-15649
▁suddenly	-15650
ခိုင်နှုန်း	-15651
▁ခင်ဗျားတို့	-15652
バカ	-15653
iny	-15654
လူ့	-15655
ျား	-15656
▁RF	-15657
▁実際	-15658
ຈົ່ງ	-15659
ອ່ອນ	-15660
ໃຊ້ງ	-15661
လှည့်	-15662
ប័ត្រ	-15663
▁hook	-15664
iences	-15665
ခဲ့တယ်	-15666
အခွင့်	-15667
▁dropp	-15668
▁fired	-15669
untunin	-15670
▁ຢູ່ທີ່	-15671
▁kalusugan	-15672
▁9,	-15673
▁ow	-15674
edia	-15675
▁ຮອງ	-15676
るために	-15677
メートル	-15678
▁tape	-15679
ຊື້ຂາຍ	-15680
▁Tools	-15681
▁agent	-15682
▁ລັບທ່ານ	-15683
▁သူတို့ကို	-15684
▁teknolohiya	-15685
XL	-15686
結び	-15687
erk	-15688
ຈົບ	-15689
မင်	-15690
ာဉ်	-15691
▁IC	-15692
▁Ko	-15693
るのか	-15694
ucky	-15695
iguro	-15696
ရှိနေ	-15697
nesota	-15698
▁Panel	-15699
▁shirt	-15700
▁includ	-15701
ເກັບຮັກສາ	-15702
តង់ហ្សានី	-15703
▁complete	-15704
同僚	-15705
ໍລະ	-15706
ထွေ	-15707
▁ah	-15708
▁ပွ	-15709
働いて	-15710
▁una	-15711
azine	-15712
▁hall	-15713
▁river	-15714
Welcome	-15715
▁ລັບຜູ້	-15716
いませんでした	-15717
▁shooting	-15718
下が	-15719
国際	-15720
の研究	-15721
ື້ອຍ	-15722
ុករក	-15723
みました	-15724
paman	-15725
ທັນທີ	-15726
▁ຊັ້ນ	-15727
▁ສະບັບ	-15728
ungkahi	-15729
ផ្តោតលើ	-15730
▁ilagay	-15731
▁lalong	-15732
ရေးရှင်း	-15733
ក្តានុពល	-15734
▁Nothing	-15735
▁ສິ່ງທີ່	-15736
▁Business	-15737
PR	-15738
erc	-15739
▁Nic	-15740
ຄືວ່າ	-15741
ໄປທີ່	-15742
▁ຫນາມ	-15743
▁လွန်	-15744
▁なぜなら	-15745
ុំព្យូ	-15746
▁malaki	-15747
tan	-15748
ສຸມ	-15749
ຮຸນ	-15750
ກ້ອງ	-15751
ရေနံ	-15752
សម្ត	-15753
hindi	-15754
ញ្ជួយ	-15755
Really	-15756
▁Miami	-15757
▁blame	-15758
▁malawak	-15759
လောင်းကစား	-15760
注目	-15761
inh	-15762
▁HP	-15763
なんで	-15764
メント	-15765
heng	-15766
ຫົວໃຈ	-15767
▁kole	-15768
ឈានដល់	-15769
ទម្រង់	-15770
▁crying	-15771
効率	-15772
တနာ	-15773
▁彼ら	-15774
ドイツ	-15775
ຢ້ານ	-15776
បុរី	-15777
▁ແປງ	-15778
みなさん	-15779
▁Anak	-15780
▁Mini	-15781
ສະຖານະ	-15782
▁Phone	-15783
▁ghost	-15784
ອອນໄລນ໌	-15785
▁bumili	-15786
▁disease	-15787
▁willing	-15788
ຕາເວັນຕົກ	-15789
▁greatest	-15790
▁ຜູ້ຜະລິດ	-15791
▁transport	-15792
▁皆	-15793
▁わか	-15794
1000	-15795
あなたに	-15796
にとっては	-15797
ensiya	-15798
▁Class	-15799
ဓါတ်ပုံ	-15800
ပါလိမ့်	-15801
ရပ်များ	-15802
っているのです	-15803
အောက်မှာ	-15804
▁အပိုင်း	-15805
Halimbawa	-15806
▁innocent	-15807
▁ເປັນຕົ້ນ	-15808
▁Panginoong	-15809
ຕັນ	-15810
တခု	-15811
ត្វ	-15812
Damn	-15813
Inst	-15814
ဘာလဲ	-15815
ធនធាន	-15816
▁စဉ်း	-15817
ສອງສາມ	-15818
▁steal	-15819
▁ອາດຈະ	-15820
အထောက်အ	-15821
▁pitong	-15822
ရန်အတွက်	-15823
▁Express	-15824
▁astronom	-15825
ផ្លូវអាកាស	-15826
សហភាពអឺរ៉ុប	-15827
ကျွန်ုပ်တို့	-15828
▁つ	-15829
プラ	-15830
他に	-15831
Mad	-15832
လူး	-15833
ថាត	-15834
Mark	-15835
ubok	-15836
វគ្គ	-15837
សេវា	-15838
▁ຍິນ	-15839
ណរដ្ឋ	-15840
▁2006	-15841
▁Time	-15842
▁moon	-15843
▁2016.	-15844
cription	-15845
ជារៀងរាល់	-15846
ကျောင်းသား	-15847
▁especially	-15848
距離	-15849
ຄຸກ	-15850
▁nad	-15851
▁ບານ	-15852
▁Leon	-15853
▁visa	-15854
▁ຕະຫຼ	-15855
▁ອະທິ	-15856
▁ເທິງ	-15857
▁ကမ်း	-15858
▁general	-15859
▁ဦးနှောက်	-15860
ផ្តល់ជូននូវ	-15861
▁1/	-15862
▁Ak	-15863
▁တီ	-15864
でない	-15865
答えは	-15866
အနက်	-15867
▁menu	-15868
hester	-15869
▁sasak	-15870
မီနီယမ်	-15871
▁ທີ່ສຸດ	-15872
ຕິດເຊື້ອ	-15873
ဒေါင်းလုပ်	-15874
ဖြတ်တောက်ခြင်း	-15875
▁分	-15876
にち	-15877
ジア	-15878
កែល	-15879
rett	-15880
ຈໍາກັດ	-15881
ອັບເດດ	-15882
အပြည့်	-15883
▁2018.	-15884
အတည်ပြု	-15885
▁nilang	-15886
▁prefer	-15887
▁spirit	-15888
အင်တာနက်	-15889
▁ជាមួយនឹងការ	-15890
▁ព័ត៌មានផ្សេងៗ	-15891
7%	-15892
▁ih	-15893
មួយៗ	-15894
▁Sky	-15895
iance	-15896
ពិតជា	-15897
▁ຫລັງ	-15898
ကမ္ဘာ့	-15899
အုပ်စု	-15900
▁aware	-15901
▁error	-15902
ປະກອບມີ	-15903
ဖြစ်စဉ်	-15904
គឺជាការ	-15905
▁amount	-15906
ကိုယ်ကို	-15907
▁release	-15908
ປະກອບດ້ວຍ	-15909
ជាន់ខ្ពស់	-15910
ခြင်းဖြင့်	-15911
▁naniniwala	-15912
▁၄	-15913
វិល	-15914
▁FX	-15915
方法は	-15916
utos	-15917
ຊື່ນ	-15918
နယူး	-15919
ဘုတ်	-15920
សំណួរ	-15921
utusan	-15922
ໂດຍບໍ່	-15923
ខ្លួនឯង	-15924
▁famous	-15925
▁manager	-15926
Er	-15927
アク	-15928
奇妙	-15929
毎年	-15930
逮捕	-15931
ន្ដ	-15932
អេក	-15933
タイプ	-15934
学んだ	-15935
種類の	-15936
what	-15937
ຝຸ່ນ	-15938
▁မှစ	-15939
UNWTO	-15940
▁ម៉ោង	-15941
▁tinig	-15942
▁ဘုရား	-15943
ကိုသုံး	-15944
▁katulad	-15945
方に	-15946
資源	-15947
បុរ	-15948
▁仕事	-15949
うちに	-15950
現在の	-15951
ahim	-15952
ແລ່ນ	-15953
▁2.0	-15954
ិយប័ណ្ណ	-15955
▁muling	-15956
▁biggest	-15957
▁written	-15958
ငွေပေးချေ	-15959
ដាក់ឈ្មោះ	-15960
ການພັດທະນາ	-15961
人口	-15962
3.5	-15963
Dan	-15964
oro	-15965
pcs	-15966
▁2.5	-15967
▁lif	-15968
អាចរក	-15969
ម្លាំង	-15970
▁bunch	-15971
▁သြဂုတ်လ	-15972
မြင့်မားသော	-15973
អាស៊ីប៉ាស៊ីហ្វិក	-15974
76	-15975
RA	-15976
mo	-15977
りは	-15978
ເຫມີ	-15979
ဂုဏ်	-15980
ထွား	-15981
▁ດັບ	-15982
▁ずっと	-15983
នាការ	-15984
▁Game	-15985
▁WTTC	-15986
ourney	-15987
ຄັ້ງທີ	-15988
စီရင်ခံ	-15989
▁asleep	-15990
ນ້ໍາຫນັກ	-15991
រដូវក្តៅ	-15992
▁Western	-15993
វិនិយោគទេសចរណ៍	-15994
,”	-15995
sk	-15996
▁ໆ	-15997
がい	-15998
ຣັກ	-15999
▁宇宙	-16000
に行って	-16001
enger	-16002
အမြတ်	-16003
ក្តីស	-16004
▁infl	-16005
though	-16006
▁Friday	-16007
▁ແມ່ຍິງ	-16008
ທໍາມະຊາດ	-16009
▁အားကစား	-16010
ကိုအသုံးပြု	-16011
4%	-16012
▁会	-16013
声を	-16014
▁SS	-16015
しかも	-16016
キング	-16017
ovid	-16018
vest	-16019
သန့်	-16020
ពៃណី	-16021
▁ສານ	-16022
▁ငါး	-16023
▁cous	-16024
▁ထွက်	-16025
してくれる	-16026
idente	-16027
ເລື້ອຍ	-16028
ຕັ້ງຢູ່	-16029
▁surprised	-16030
▁公	-16031
ヒト	-16032
数字	-16033
概念	-16034
ထို့	-16035
▁ign	-16036
えません	-16037
センター	-16038
ပါနဲ့	-16039
ahamas	-16040
▁bumuo	-16041
▁paint	-16042
▁ເອີ້ນ	-16043
ສູງເຖິງ	-16044
▁played	-16045
▁incredible	-16046
単に	-16047
Col	-16048
awi	-16049
bec	-16050
uso	-16051
အဝတ်	-16052
ាក្រ	-16053
▁11,	-16054
いけない	-16055
isher	-16056
កុមារ	-16057
Before	-16058
စိတ်ချ	-16059
▁Contr	-16060
▁Georg	-16061
▁ແລະມີ	-16062
▁Custom	-16063
▁degree	-16064
▁ໃນໄລຍະ	-16065
បេតិកភណ្ឌ	-16066
▁espesyal	-16067
▁pregnant	-16068
▁seriously	-16069
幸運	-16070
疾患	-16071
▁少し	-16072
簡単に	-16073
Shut	-16074
asin	-16075
ກັນຍາ	-16076
ទួរគី	-16077
▁လက်မ	-16078
▁Jordan	-16079
▁career	-16080
▁စဉ်းစား	-16081
ນັບຕັ້ງແຕ່	-16082
▁ພວກເຮົາຈະ	-16083
特定の	-16084
Help	-16085
rate	-16086
ສິໂນ	-16087
▁Spr	-16088
▁und	-16089
ທີມງານ	-16090
ဆင်ရေး	-16091
ဇင်ဘာလ	-16092
ស្ត្រី	-16093
▁mababa	-16094
စည်းကမ်း	-16095
လက်ခံရရှိ	-16096
▁brothers	-16097
ortunately	-16098
イド	-16099
増加	-16100
忘れ	-16101
構成	-16102
▁39	-16103
▁By	-16104
▁ໃຜ	-16105
▁どれ	-16106
▁彼が	-16107
100%	-16108
လျင်	-16109
▁ここで	-16110
ຕະວັດ	-16111
▁http	-16112
▁mate	-16113
えています	-16114
ຜິດພາດ	-16115
▁အဆုံး	-16116
▁Italian	-16117
▁species	-16118
キュ	-16119
ダム	-16120
ルス	-16121
水を	-16122
lyn	-16123
អំព	-16124
code	-16125
ມີນາ	-16126
လူသိ	-16127
▁さらに	-16128
イギリス	-16129
明らかに	-16130
Habang	-16131
ថាអ្នក	-16132
ាស៊ីណូ	-16133
▁admit	-16134
ໃນມື້ນີ້	-16135
▁herself	-16136
▁ໃນບັນດາ	-16137
▁thousands	-16138
けれ	-16139
るよ	-16140
診断	-16141
選挙	-16142
គោរព	-16143
アルマン	-16144
▁Work	-16145
ກວດສອບ	-16146
ឱ្យមាន	-16147
▁Night	-16148
▁locked	-16149
တယ်ဆိုရင်	-16150
လိုက်တယ်။	-16151
UC	-16152
集中	-16153
▁ຢູ	-16154
ってい	-16155
ろしい	-16156
.000	-16157
Aren	-16158
iban	-16159
ລ້າງ	-16160
អាល់	-16161
▁rub	-16162
驚くべき	-16163
apang	-16164
ວຍການ	-16165
▁ທ້າຍ	-16166
ກໍ່ຕັ້ງ	-16167
aganapan	-16168
ຫຼວງຫຼາຍ	-16169
▁ເຫຼົ່ານີ້	-16170
▁Department	-16171
▁ထိန်းချုပ်	-16172
▁၅	-16173
くと	-16174
မပါ	-16175
vard	-16176
▁Ele	-16177
▁VPN	-16178
▁fle	-16179
apaan	-16180
ໄວ້ໃນ	-16181
សុទ្ធ	-16182
▁apart	-16183
ahalaga	-16184
ရှိသမျှ	-16185
▁beauty	-16186
▁gotten	-16187
になるでしょう	-16188
▁subject	-16189
▁တစ်ယောက်	-16190
စေခြင်းငှါ	-16191
▁political	-16192
▁ဆက်ဖတ်ရန်	-16193
su	-16194
▁AD	-16195
ချပ်	-16196
လှစ်	-16197
▁လုံ	-16198
こういう	-16199
するのか	-16200
出来ない	-16201
ປຶກສາ	-16202
ဝယ်ယူ	-16203
▁Ikaw	-16204
▁Keep	-16205
នឹងមាន	-16206
នោះទេ។	-16207
▁Italy	-16208
ພາກພື້ນ	-16209
za	-16210
かは	-16211
チン	-16212
▁CC	-16213
の中の	-16214
ကလစ်	-16215
မ္မတ	-16216
ុត្រ	-16217
▁URL	-16218
rogen	-16219
▁kone	-16220
អ៊ីមែល	-16221
▁Lahat	-16222
▁stock	-16223
▁Andrew	-16224
▁Listen	-16225
▁closer	-16226
မယ်ဆိုရင်	-16227
មហ	-16228
を下	-16229
育て	-16230
世界で	-16231
ခုပ်	-16232
មកាល	-16233
ອາການ	-16234
アメリカの	-16235
▁ekonom	-16236
▁arrived	-16237
▁hearing	-16238
▁towards	-16239
မျှော်လင့်	-16240
ML	-16241
ດອນ	-16242
小さい	-16243
aria	-16244
▁အက်	-16245
ရွှင်	-16246
▁dare	-16247
▁အကြီး	-16248
▁compan	-16249
របស់ខ្លួន។	-16250
年後	-16251
心を	-16252
Ant	-16253
っちゃ	-16254
を殺す	-16255
フォル	-16256
lima	-16257
▁Nak	-16258
မေရိက	-16259
តែងតែ	-16260
ប្រាប់	-16261
▁imahe	-16262
▁kuwarto	-16263
ໂຮງງານຜະລິດ	-16264
ដែលទទួលខុសត្រូវ	-16265
▁pinakamalaking	-16266
原子	-16267
ເຢັນ	-16268
မယ်၊	-16269
ရန်း	-16270
▁upd	-16271
たのです	-16272
stein	-16273
▁Braz	-16274
▁drag	-16275
ounded	-16276
နေ့တွင်	-16277
▁losing	-16278
ကြပါတယ်။	-16279
សម្ព័ន្ធ	-16280
▁Program	-16281
▁Barcelona	-16282
ກ່ອນຫນ້ານີ້	-16283
BM	-16284
カリ	-16285
gie	-16286
お前が	-16287
bass	-16288
▁Pak	-16289
▁hyd	-16290
▁ໃກ້	-16291
んなさい	-16292
antay	-16293
▁isip	-16294
father	-16295
isanan	-16296
မိသားစု	-16297
ຈ່າຍເງິນ	-16298
▁steroid	-16299
▁operating	-16300
リオ	-16301
今の	-16302
共同	-16303
ເມນ	-16304
လှေ	-16305
Pass	-16306
char	-16307
ມ່ວນ	-16308
ិទ្ធ	-16309
▁360	-16310
▁sym	-16311
▁ວາງ	-16312
▁နို	-16313
▁လွှ	-16314
orter	-16315
ចរបស់	-16316
▁Ball	-16317
▁Camp	-16318
▁among	-16319
▁natit	-16320
alangin	-16321
រួមគ្នា	-16322
▁freedom	-16323
▁natagpuan	-16324
បា	-16325
せい	-16326
政策	-16327
150	-16328
ດູດ	-16329
ຜິວ	-16330
▁LI	-16331
ented	-16332
မပြတ်	-16333
▁တွေး	-16334
ຂອງຄວາມ	-16335
အထူးပြု	-16336
▁sports	-16337
ដោយសារតែ	-16338
ទិដ្ឋភាព	-16339
▁pattern	-16340
かもしれませんが	-16341
ການແຂ່ງຂັນ	-16342
ເຖິງຢ່າງໃດກໍ່ຕາມ	-16343
GA	-16344
▁正	-16345
ねば	-16346
爆発	-16347
ិច្ឆ	-16348
aptop	-16349
▁နယူး	-16350
▁gayun	-16351
▁relih	-16352
apakita	-16353
ຂໍຂອບໃຈ	-16354
ຕໍ່ຕ້ານ	-16355
របៀបដែល	-16356
▁Indian	-16357
▁အောက်ဆီဂျင်	-16358
▁入	-16359
元気	-16360
ປາຍ	-16361
▁良い	-16362
ချို	-16363
だろうか	-16364
▁Mach	-16365
alabas	-16366
ဆေးဝါး	-16367
ហ្សេរី	-16368
▁Champ	-16369
တော်လေး	-16370
▁Huawei	-16371
▁excited	-16372
を用	-16373
upa	-16374
ទុយ	-16375
▁ບາ	-16376
▁លើ	-16377
はその	-16378
bour	-16379
iled	-16380
はとても	-16381
cribe	-16382
ន្ទីរ	-16383
ប្រេង	-16384
▁Army	-16385
ຟື້ນຟູ	-16386
ລາຍໄດ້	-16387
▁ပျော်	-16388
ခဲ့တယ်၊	-16389
ပေးဆောင်	-16390
ရုပ်ရှင်	-16391
សម្រេចបាន	-16392
ព៌	-16393
ເຣຍ	-16394
▁今日	-16395
なのに	-16396
សាទរ	-16397
▁ທິດ	-16398
ivate	-16399
ຄວນຈະ	-16400
▁meat	-16401
uridad	-16402
▁ដូចជា	-16403
▁Indust	-16404
ທ້ອງຖິ່ນ	-16405
အရေးကြီး	-16406
▁lingkod	-16407
အုပ်ချုပ်	-16408
ຄວາມເປັນຈິງ	-16409
iki	-16410
ဥယျ	-16411
ចាក	-16412
▁ເຜ	-16413
အလယ်	-16414
▁Kas	-16415
▁max	-16416
▁rac	-16417
それでも	-16418
に関して	-16419
ktang	-16420
ဝှမ်း	-16421
ວາງແຜນ	-16422
▁image	-16423
ដំបូងគេ	-16424
▁matery	-16425
▁Central	-16426
▁mahanap	-16427
▁WhatsApp	-16428
▁paggamot	-16429
▁នៅទីក្រុង	-16430
▁testosterone	-16431
បេ	-16432
▁も	-16433
主張	-16434
僕が	-16435
ယစ်	-16436
▁Ms	-16437
していて	-16438
Leave	-16439
ທັນວາ	-16440
▁cart	-16441
▁အကြံ	-16442
asanay	-16443
asyong	-16444
លក់ដុំ	-16445
▁2018,	-16446
▁Amster	-16447
▁individ	-16448
▁ព័ត៌មានសណ្ឋាគារ	-16449
Gl	-16450
第一	-16451
資金	-16452
Res	-16453
Turn	-16454
ခရစ်	-16455
ခွက်	-16456
▁30,	-16457
uhang	-16458
▁keys	-16459
ontrol	-16460
ວິເຄາະ	-16461
▁ທະຫານ	-16462
ကွောငျး	-16463
ຕົວເມືອງ	-16464
▁တစ်ခုခု	-16465
▁ພະລັງງານ	-16466
ប្រឆាំងនឹង	-16467
ຜູ້ເປັນເຈົ້າ	-16468
▁ໂຣ	-16469
くなる	-16470
▁Lim	-16471
を変える	-16472
កូរ៉េ	-16473
ຕໍ່ມື້	-16474
ငါတို့	-16475
ထားပြီး	-16476
▁စာအုပ်	-16477
မှတ်တမ်း	-16478
သိုလှောင်	-16479
▁目	-16480
ໂຕ້	-16481
່ໍາ	-16482
▁42	-16483
izza	-16484
ລະປະ	-16485
ເບີດ	-16486
▁Mun	-16487
▁SEO	-16488
▁ထူး	-16489
▁load	-16490
▁stage	-16491
ເປັນການ	-16492
isitahin	-16493
▁ngayong	-16494
អូស្ត្រាលី	-16495
▁pribadong	-16496
ក្នុងប្រទេស	-16497
下の	-16498
気分	-16499
確か	-16500
-11	-16501
Kum	-16502
Try	-16503
るのに	-16504
urse	-16505
ນ້ອງ	-16506
ອານາ	-16507
វីដេ	-16508
ກອງທັບ	-16509
အင်္ဂါ	-16510
▁ສັນຍາ	-16511
と思いました	-16512
▁Access	-16513
សក្តានុពល	-16514
ທີ່ທ່ານຕ້ອງການ	-16515
PP	-16516
▁グ	-16517
再生	-16518
食料	-16519
die	-16520
eld	-16521
oga	-16522
မသိ	-16523
▁研究	-16524
誰もが	-16525
itty	-16526
າຍັງ	-16527
သောအ	-16528
イメージ	-16529
andom	-16530
မျှဝေ	-16531
▁alin	-16532
▁impro	-16533
▁trade	-16534
▁မြင့်	-16535
▁Awards	-16536
▁Really	-16537
ဓာတ်ငွေ့	-16538
▁attract	-16539
▁ទីផ្សារ	-16540
ຄ້າຍຄືກັນ	-16541
▁practice	-16542
▁Amsterdam	-16543
▁Minnesota	-16544
▁ကျွန်မရဲ့	-16545
キシ	-16546
勇気	-16547
ALL	-16548
ປິນ	-16549
ဆစ်	-16550
▁ຣາ	-16551
多くは	-16552
方法で	-16553
Fine	-16554
▁Opt	-16555
たくない	-16556
စက္ကူ	-16557
▁Nice	-16558
ສັງເກດ	-16559
ဆိုင်း	-16560
ဥယျာဉ်	-16561
▁Block	-16562
▁spoke	-16563
▁bisita	-16564
▁instit	-16565
▁teksto	-16566
▁nuclear	-16567
▁ပေါ်မှာ	-16568
UD	-16569
Bab	-16570
igg	-16571
ໂອນ	-16572
បរិ	-16573
まない	-16574
ជ្ជា	-16575
▁Kum	-16576
▁Run	-16577
ieces	-16578
ulate	-16579
ស្ថាប	-16580
▁Swit	-16581
ខាងលិច	-16582
▁binuo	-16583
▁older	-16584
▁100,000	-16585
▁changes	-16586
အသုံးပြုမှု	-16587
▁blockchain	-16588
ជាអ្នកដឹកនាំ	-16589
」「	-16590
手伝	-16591
こちら	-16592
ihim	-16593
rass	-16594
ລິ້ນ	-16595
▁350	-16596
▁ស្ថ	-16597
မှုဟာ	-16598
▁Fred	-16599
▁above	-16600
ກໍລະກົດ	-16601
▁ទៅកាន់	-16602
ເປີດເຜີຍ	-16603
▁Password	-16604
ດໍາເນີນການ	-16605
▁recognize	-16606
始ま	-16607
ារៈ	-16608
▁僕は	-16609
ipon	-16610
stan	-16611
▁ປອດ	-16612
▁ຫມໍ	-16613
▁Mama	-16614
ទេសភាព	-16615
▁north	-16616
▁relig	-16617
医学	-16618
革新	-16619
いたら	-16620
empt	-16621
▁(2)	-16622
▁mum	-16623
▁held	-16624
▁ကူညီ	-16625
ຕົວແທນ	-16626
▁cheap	-16627
លក្ខខណ្ឌ	-16628
▁interesado	-16629
ズの	-16630
予想	-16631
度と	-16632
点を	-16633
道路	-16634
uba	-16635
ថ្ម	-16636
បូព៌	-16637
▁Put	-16638
▁sky	-16639
▁ສູ່	-16640
▁ຫຼວດ	-16641
▁これらの	-16642
ສວຍງາມ	-16643
အစွန်း	-16644
▁embar	-16645
▁casino	-16646
▁madali	-16647
▁makuha	-16648
រាយការណ៍	-16649
▁ត្រូវបានគេ	-16650
ဖွံ့ဖြိုးတိုးတက်	-16651
7:	-16652
ຈາ	-16653
性が	-16654
演奏	-16655
ូចន	-16656
ものの	-16657
弁護士	-16658
最高の	-16659
izer	-16660
ိုဟ်	-16661
ឪពុក	-16662
▁80%	-16663
ရတယ်။	-16664
ရွှေ့	-16665
▁1970	-16666
▁Blog	-16667
▁bodies	-16668
▁កន្លែង	-16669
Somebody	-16670
အပြည့်အဝ	-16671
▁ໃນເວລາທີ່	-16672
js	-16673
所に	-16674
comm	-16675
flix	-16676
▁Mem	-16677
ニュース	-16678
ူးယစ်	-16679
ြိုဟ်	-16680
▁Year	-16681
ຂົງເຂດ	-16682
ຮຸນແຮງ	-16683
▁Little	-16684
▁先	-16685
か月	-16686
取引	-16687
မှီ	-16688
កាប	-16689
លំហ	-16690
▁18,	-16691
▁AND	-16692
ຫລາຍໆ	-16693
ူလိုင်	-16694
▁Review	-16695
ຍັງສາມາດ	-16696
ပြည်ပြည်	-16697
▁itinatag	-16698
バン	-16699
心に	-16700
▁WH	-16701
▁ແຈ	-16702
ラリア	-16703
Most	-16704
▁Hum	-16705
▁မြှ	-16706
ភ្លាម	-16707
▁rule	-16708
▁ချစ်	-16709
いくつかの	-16710
ဝင်ဘာလ	-16711
iversal	-16712
▁ខណៈដែល	-16713
▁deserve	-16714
▁နှစ်ပေါင်း	-16715
GS	-16716
”.	-16717
をと	-16718
元の	-16719
力の	-16720
少年	-16721
抜け	-16722
異な	-16723
ກ້າ	-16724
ຝັນ	-16725
▁ဖျ	-16726
ティブ	-16727
avis	-16728
part	-16729
ແກ້ວ	-16730
လွှဲ	-16731
▁Pam	-16732
▁hil	-16733
▁ရည်	-16734
ですよね	-16735
ingan	-16736
សម្រប	-16737
▁Lake	-16738
icense	-16739
▁shock	-16740
အောက်ပါ	-16741
▁journal	-16742
▁bringing	-16743
▁national	-16744
စိတ်ကြိုက်	-16745
信用	-16746
家は	-16747
ລາມ	-16748
ဝတ္	-16749
လီယံ	-16750
▁kaw	-16751
かどうか	-16752
言います	-16753
berry	-16754
▁Jane	-16755
▁Marc	-16756
▁isyu	-16757
▁reco	-16758
asonic	-16759
ခံရဖို့	-16760
▁Agosto	-16761
▁လက်မှတ်	-16762
銀河	-16763
▁Az	-16764
ohol	-16765
ကိုး	-16766
သိပ်	-16767
▁様々な	-16768
វិញ្ញ	-16769
▁iyan	-16770
▁taste	-16771
ស្សមកាល	-16772
4"	-16773
IR	-16774
を超	-16775
សាម	-16776
▁ဘီ	-16777
▁ဟု	-16778
▁何が	-16779
Ipin	-16780
aren	-16781
▁ကွဲ	-16782
បានជា	-16783
សិក្ស	-16784
▁Make	-16785
▁anti	-16786
するという	-16787
ມິຖຸນາ	-16788
လီကျူး	-16789
កំសាន្ត	-16790
▁lights	-16791
ថ្មីៗនេះ	-16792
ចលនទ្រព្យ	-16793
របស់ពិភពលោក	-16794
78	-16795
Ok	-16796
▁二	-16797
▁ub	-16798
▁ប៉	-16799
aram	-16800
oyal	-16801
អបអរ	-16802
▁ລັກ	-16803
ဒုတိယ	-16804
ញ្ជើញ	-16805
တင်ဘာလ	-16806
မရှိဘဲ	-16807
▁truly	-16808
▁ບັນຫາ	-16809
ແມ່ນການ	-16810
ប្រពៃណី	-16811
▁labing	-16812
▁ສໍາຄັນ	-16813
▁Account	-16814
▁សម្រាប់ការ	-16815
တစ်ဦးချင်းစီ	-16816
▁nagsimulang	-16817
チョ	-16818
体に	-16819
သူ၏	-16820
ពិច	-16821
そうな	-16822
ろうと	-16823
同様に	-16824
帰って	-16825
ຢູ່ນ	-16826
▁paa	-16827
こんにち	-16828
世界中の	-16829
iring	-16830
▁អគ្គ	-16831
မီးဖို	-16832
▁plans	-16833
ສະບາຍດີ	-16834
ប្រទេសចិន	-16835
PT	-16836
Te	-16837
ユー	-16838
奴隷	-16839
cue	-16840
ကာသ	-16841
▁85	-16842
▁အသ	-16843
▁တိုင်း	-16844
ເງື່ອນໄຂ	-16845
▁several	-16846
▁nagtatrabaho	-16847
ဒ္	-16848
予定	-16849
何だ	-16850
作用	-16851
条件	-16852
遊び	-16853
ន្ស	-16854
▁Ted	-16855
▁ຊື້	-16856
▁Fort	-16857
▁Mess	-16858
▁autom	-16859
ຮ່ວມງານ	-16860
▁nawala	-16861
[...]
